node {
  name: "Placeholder"
  op: "Placeholder"
  attr {
    key: "dtype"
    value {
      type: DT_FLOAT
    }
  }
  attr {
    key: "shape"
    value {
      shape {
        dim {
          size: -1
        }
        dim {
          size: 32
        }
        dim {
          size: 32
        }
        dim {
          size: 3
        }
      }
    }
  }
}
node {
  name: "keep_prob"
  op: "Placeholder"
  attr {
    key: "dtype"
    value {
      type: DT_FLOAT
    }
  }
  attr {
    key: "shape"
    value {
      shape {
        unknown_rank: true
      }
    }
  }
}
node {
  name: "conv/Variable"
  op: "Const"
  attr {
    key: "dtype"
    value {
      type: DT_FLOAT
    }
  }
  attr {
    key: "value"
    value {
      tensor {
        dtype: DT_FLOAT
        tensor_shape {
          dim {
            size: 2
          }
          dim {
            size: 2
          }
          dim {
            size: 3
          }
          dim {
            size: 16
          }
        }
        tensor_content: "\235\016\343\275\r\022\020>\266ls\275\212Y\271=\210^I>\007\233\220>\022\227l>\221\266\220>cW$>W$\237<E\030!\276?\200\331=g\304\213>H\237\225\276z\023T>?\260\214>\2611\255>\346\024\224\276\026\'\000\276\037\306\276\276\\\346(<F\364\211=q\177w\276F\260\277\276b\312|\276\345\375h=\252\316\323\276\017\301\213=\323\327\312;\256\324U\276\tx\344=;\022[\275\211\234\005\276\000\220\334=\'\231n\275\345 \">\016y\203=\014{\272\276\032\025d\276\336,\000>d(\263>?\270]>3\341\247\276\246h\204>\000\203\016=\235$\256\276G\211\303\275\363\322\257=\203\204\275\276:\026\222\274L\250e\275\275\365\206>\251 \';\036d\014=\001o\r\276j\304\204\276\243\246.;\301\241g<N\360\320\276S1:\276Z7\'>o\004>>\263\261H\276\026:\377\275\263=\315=\341|\007:!.R>\025\305\225=\217r\000\277X\212\021\274\354\331\'\276\331Z\345:$jI>A\210\251>\227\270\226\274\006\032\307\276\310q\371=\261\210\003?0\375\225>?\025\264=:\277&\276\213j\374;T\346\310\275d\276\357>\337\214\323\276\320u->\320\212\253<\373\221k;\377~\032\276\217\350\216\275\346\340 \276\3566G=\026\200\352\276hm\363=\2545\241\276\362\351\310=D\226n\275\020\272\246>=\037\217\275\'zc>\232\317\270>\262\235\317\2749\251\340=\237s\320>\201\276\310\275\022\345E>\036\375\311>\340\037\207>r\346\224>\261-\260=dr\251=\263\207?>\362\001\217>\320\024\251\276\253@\024<NP\025>\343\313?>>n\t\276\024\213\237\276Br\211\276\320p\261<\247\366\233\276\276\210*>\204\220\231>\301#\202\275\361\212\303\276\302\340A>K_\266=,o0\274\336!\022>\360\005y\276gZ\320\275d^\001<Xr~>g,\306\275\216\241\205\276\000\240\036\273\350\265P>\233x\251>\027\352a=$G\252\276D\222X\275\036~Z\276\030w5\275X\375\306=q\241\276>\371\025\316=\227\nr\276m\207l\276\375\231\225\276\312e\307\275\261\033G>}\243\372=4\257\241\275\2401\211>\316\022\242\276\326s8>\245\027\023\27505\256=\366~\223\276\353\252\271=\200\267\211\276\006Q\376>\271\307\256\276\177|N=b-\002\276.5\275<\300\327\003>\032Z\266\276d,\202\276\276\347\361=F3\323\276\036\241\256=\250\377\242>2\301}<\243\311w\276\3376\345<\304e\213>N\364g=\245X\270\276\340\242d=\233}\361=4\320t>]6\312=\354.\370\272\224\370\'\274a\235\221>\221\354\243=\010\004\271\276h~v=\025\337\373\276\365U\205\274"
      }
    }
  }
}
node {
  name: "conv/feature_map"
  op: "Conv2D"
  input: "Placeholder"
  input: "conv/Variable"
  attr {
    key: "T"
    value {
      type: DT_FLOAT
    }
  }
  attr {
    key: "data_format"
    value {
      s: "NHWC"
    }
  }
  attr {
    key: "dilations"
    value {
      list {
        i: 1
        i: 1
        i: 1
        i: 1
      }
    }
  }
  attr {
    key: "padding"
    value {
      s: "VALID"
    }
  }
  attr {
    key: "strides"
    value {
      list {
        i: 1
        i: 1
        i: 1
        i: 1
      }
    }
  }
  attr {
    key: "use_cudnn_on_gpu"
    value {
      b: true
    }
  }
}
node {
  name: "conv/bias"
  op: "Const"
  attr {
    key: "dtype"
    value {
      type: DT_FLOAT
    }
  }
  attr {
    key: "value"
    value {
      tensor {
        dtype: DT_FLOAT
        tensor_shape {
          dim {
            size: 16
          }
        }
        tensor_content: "\373\256\346\2749\017g\276\336\363\230\275\2652\342;J7\320=\027\340\363<\300\306l>\205\342o\275[\307\250<\345\265E\276\2560\303\273\301\317\024=u\222\214\275\307R%<P \245=\303\177\361\274"
      }
    }
  }
}
node {
  name: "conv/logits"
  op: "Add"
  input: "conv/feature_map"
  input: "conv/bias"
  attr {
    key: "T"
    value {
      type: DT_FLOAT
    }
  }
}
node {
  name: "conv_1/Variable"
  op: "Const"
  attr {
    key: "dtype"
    value {
      type: DT_FLOAT
    }
  }
  attr {
    key: "value"
    value {
      tensor {
        dtype: DT_FLOAT
        tensor_shape {
          dim {
            size: 3
          }
          dim {
            size: 3
          }
          dim {
            size: 16
          }
          dim {
            size: 32
          }
        }
        tensor_content: "\020\244\215=%tT\275 \277$\275f\223\204\275\036\241\345\275\262pk\276\027w\243\275Cw\257\276zn\036=\t\255B=KY\324<\370|*\276,\035\000=a\007D\276f\256\245\275GV\333=!R\246\275/;<>\267\220\220=\027\200\203=\214xj\276(O%>\207wT\275\022\330\016>%\310\365\274-\335\027>\230\2406\275\027\017Y\275\335\320*\276;\300\316=\333\377K\275\234f\350=r\336\213>P\301\355\273\360\360\261\273-3\005>\020\001_\276\206=\271>\353@\200\275\321\342\203\275\332\360Q\275\223\236,\276\n\222\356<\004|\247\274\233,\036\276~\214)\276w\315\020\276\373\346\035=\233\255\277=\346jC=V\340\336\275\340\032R=e\356R\276\217\311y>\002L\207\276\332o7>T\340\222=*\037\345=Mv\254=\310\314\230=\220\203\345\275[6\356\275Nu\307=\034\304u\276\245}E>\007F_=\026\017\253\274\016\320\375<l=\307\275T\237\030\276P7\217\274\022e\375=5\314}\275\316\n\336<\005\313\371\274(e\'=;\341\234\275+\371}\276\032\344\021=\375\243\n\276\330Y\001>oL\207<\376\310|<\003y\032<\312f|\275\261v\371=z\201\000\276db\317\275\263\374\302=`\"\201<\006\305\000\275\200A\377=\205tj>WG_\276g\360c=l\022\310=+\306U\275?\013\230=\262\363);\204\301\327:\211O\211>\022\262\031>6\200\315\275\353?\244>\375b\335=\256\312q\275\033\350\361=\320\202Y\275\016\206P<N\227\234>\024\205\312=HY\303\275[\372\374\2759L<>u\334\206\275T4M\275\035\300\351=<h\001\276,H\206\276ZoN=\335\272\221>\004\364\201=\350l\357\274\203K-\276\346\243\266\275\304\306\224\276a\026\256=`\000<\275~\226\344\274\323\314\210\276\005[\272<n\361+<b\260\020=\220\257\220:)\301\261\275\016\313Y\276t\307\017\274\262U\226\275\222c\247=_\275\274<r\330V=\374\210\023=\2309o=\303\312r\275\n\331c\274\027\302\200\276:\351\203=Z\222k>\230\347q\275O\306\343=u*G=\304\351\267\275\032\217\263\275l\327i\275h:W=Y;[\2769\327f\276\231\014\205\276\341!\235\276\206O\017;\026H\020\276\033\325\202=\342\337i=\003\3151\275`>5\275%\001D\276\023k\321=\3762\301=.\306\345\274\217\312\014=\377s\213<\374v\021>\030\201\234=\277\001\272=9&\221=\271\221\271\275,\267\250=d\347\251\2765\027a\275\250\360\265\275\347\375\337=\r)X\275+\030|>\345\233]\275\246\277\322=\333\021\246\275\206\244m<\224*\330\275R/\262=K\035:=\240O6\275\324\253*>\255\033\304\275\025\027\224>\027/\237\274\377\376\265=s\310\253>7\254\'>\373-\350\274\321X\311\275K\260 \275\353\212a\275\204\250\340\274\354!;>\026\202\355=\270\326\303\275M\301;=\300\275[;\016\375%\274\003\t4\276\255\310\210\273/\347\035\275\302\347\200>\035\246\237\276\245\222\271>\004}A\276\300\311#=Kz\305\274\334\317\020>\333\326\020>\325\312_>\270\334M\275\'\250P\274\231k\027\275\263\345\002=\022I\375\274\023\355\006=\222\355\243=\265\267\215\275\017\345{>M\"t\275\217\t\345\275\313\036\000\275\201\257\272\275\302\252\251\274O\316\016>\224\304\n\275Mi\001\276v\266\257\275\017r\251\275\253l\216=\215\275\333\274\t\206\255;\255\334Q>a^,=\365\177\343\275\217GP=\252\202\237\275\rx\347:\026\270K=*\337\221\275\230\321n\275\2455\233\275\370yn\276X\010\036=*\346T\276\202\266Z\276\320f\317<\325y\211=\321\373\330\275\022\265Y>\244\367z>G\362U>\245b\366=\322\2334=\375\264\267<A\037S=O\231\201=P30=\203:\366<{\262\272=\201\005g=\273\023`=cOa=Q\017#\275\0263\301\272>\352=>\346\215\200\275T\334E>\240\207T<\274\221\326\275\244\020\013\274\346C\211=X\333(\276\014><=\t\206\252=7)\266=!\364c\276\226\005\301\275I(\003>\000O\271<\307\265\323=\213+\021>\344%\320=<\241\255=\r\265\024>Uf\016=\214vB=je\002\274\336H\201\275\005\265\251<\272c^\275\216h\232\275\273\347\010>\3074\364=b8\037>8yG\275RC\345=\220!\264\275rF\r>\017\241W\276q\300~>\274\212\277\275\302\372p<\272\231\374=\275:\325=\221(\235\275h\345r=\320g\231>-\362J=\245y\236>\002\312L\275\035L\216\274Jc\323\274A\\\254\276\3130f=9q\361\276\305h\215\276\021r\332\275\341w\323\275\3436\021=\3108\305\275M\353\276=\326j\274\276\231\276\227\276\204E\232\274\006W@<\261\372\275\274d P>\022\207\235\276=V\367\275\337\321!\275\227\204\326=\306s\276\273\354\345O>\271\240\216>$\222\007>\177z\240\275H\361\243=\266\211\274\274\253\026\222\276i\"\260\275jg\340\274\276\271\210=$\026\024\275\014#\021<,\035\264>\337}\207\275V\251!\275\266\257W=(\324\312=(\305\036\274\005D\000>\032\013\333=\324\324\030=q7\324=\235\203\006\276&\313%<\314f`\274j\023H=\014\007\033\275\331y\004\276\016\317\312<N\205h=>\343\375\274\220\226\002;\257\311\032\276bO\230\275\224\255\300=\034&\250\275\270\270-\2766[\236=UA\244\274\025\2161\275v\2119\276H\253x=W\227\330\275\240\330\200<k\205T>\265\265E>/g\257\275\031\320I>\237^\240=\r\217\201\274\271*6\276\250C\251<\023\375h\275\362\232\351=\3233\345=\022\363\004\275E\363k=\314,\324=D^\361\273\230\010\225>9\270\245<\032\332\336<\360z\325=\301\276\307\275h\317\013>\366j\217= \3738=\272\265\265\275\300\3001=0\337\212\275\025u\014>\207)\272\275\006[\343\274\300n\235>#o\030>s\000\224\275/v\321\276\327\377\336=kQ\n=\347\341u>\215\362\226\275\3153\002=\203\355\304= 7\236=C>\204\273%t`\275\334\t\276\274\216\334z=\352U\306\275X\344\345\274s\356a\275\365\2143\276\276]\245>(TR\276\204\213\001\276\211f\323\2755\207w>\226\2022\276)]\366\275\\\232\355=\364\351\370>\344E\335\275\365\266\250<T\201\260<\270d\342\275\'5\306=u\356\270\275jh\247\274\244\341\266>\250\350\327=\377\236G\275\373s\022\276\315R\000<\256z\314\275\252\345\223<\230\016\342=\035\322\235<a]|<\315%L>\325\261\264=_\220\307=\245,\027>\027A\235=\225;\007>\374p\034;p\314\205\275]\274m>Yy\275\275i\211\361<\276\232\231=\026xk\275\3549^\275\001I\313\275#\256\257\275\220\245\002\276\326\005\002>\327\262\351<\355p;<\342j\207=e\355\020=\335A\362=\2750\364<\rW\371\274\024L\225= \277\332<h\311 <\3525\254=F\006\233<[a\203\276\327Q\221<\024\237\262<\356\3555\2762\370\376<\214D\315;\314\343\307\273\211\034\023\274\377\213\363\275\241?\315=o\033I\276\242(\277=-\232 <-\317\302=[\273\014\275\314\267\222\272\323\3504<q\013\007=Zs\264\274V\274\230<\346\222\377\275J\261F\275\302\277\303\274\224!\226;~\006\200<\276\007\314\275\276\016\200\273\323\267W\275:K\206=\352\226\346=\310\330\312\274\3123\337\275\362U\344\275\275\205 ><\311\267=\327u\016<\006_\353\275y\360\261\275\t\230\244<\356\312P\276\372\263\202\272\240\324V9%\356\261<\310h\006={\254\302\276\004\240\316=\273\314C\276\2412n=\375\225F>{\322\026>K\251\307\275\316\371\027>,vR\275\355\372\006\275\300\275\213=\212\321\336<\243\312\371\275\364X\276>\372\375\323\275\321\203\276=W\344F=\256\324\t\276\270\226\007\275\334/s\272\377\224V\276\\W\375\275/\031w<\275\2617>\205\304\326\275\006\350\330\275\030\340\005\276\343o\t>>=\021>\025\227\371\274\321\024\025=\037\365\243=\341\205@\275T\242\365;\223\232\025>!\035\262\275T/\n\275\016\271p>I\311\020>\0254\200\2763\334)\276\311\371\004>g\027d\275\2500\346<\240Bl\2745\377\221=\016\254\031\275\"\235\026=\360j/>\325\023\005\273\2256D\274\217\\\254\275\250\006\025\276\376\214u=\375\376\243=L\204~\273\321\035+>yc\305=%v\311\275\311\371H>v\323\260<\204\346\311\274\211.%=\272\353\215<u\260*>\313\315\366\274\\\301;\276\3511\232\276\354\246\221\275w\201\"\276\004\244\013\275\225\245\331<\327\014\212>z\n\220:q,\206;d\016)\274XMh\276\037\326\314=\025\302\273\275\0073\006\276Vt\304\274\356\206?\275\364N\316;\274$\230<\256\335\260\2756\357\370\276\r\027+<\300\227\007=F\360\366\275\246>\205>\036\312\340\275+3\261\275\3323\023\275\3215N\274\210y\254\276b\220\232\275nm>>\273\226\003<;\3155>\036Z0\275\344\224G<\321\023q\275\260\322\373\273\277!\022\276b\350\005\276\240\007\224\276\203\215\262\275\340p\031=\020!\220<\002\236\277<P\221\330\275\220H\000>m\346\316\275\356nC<\240\211\002>5\334\326=(V\002<\375\334e\275\001$\274=D\335\016=o\354\t\276\372\320\244\274\312&\027\275F}\271\275\35231\275b\213W\275\350\036H\274\247\310\327\275y\327\241\275\330\253\324;\353r;\275\216\315\362=N\324\276=,\354\013\276\321\332\202=z\341\236;\315\234\202\274)\224\264\275Xx\257=\215:`=\203\305\262=\272\341\305\275\317\347\204=(\266\367<,\2022\276\227n\275\275ytR;\026\361\302\273q\027\316=\231\327\246;3\245\206\275\222R\312<\312z\002>BWX\276\306\255\265;\265\303\026\276?\"\265\275\273\330\001=I\020\214\275Qv\177=\233F)=\272|\342\275\037\207\315=f\326E=\241y7\274\n\024z=c\017\262\275\210\313\367<\274\t\010\276\224\250\033>\336\253];\037\323\003\276\223\340\251=\322\027U>`\342\034\276\365\016\201>\344|\032>\000\024\221\275Z$\215\273J}\211>+\360\306>\034\216\034=\023)*>9\276\264=\354+\306=\347,\376\274\367k\026\276\376\251\221=\300\027\261=j\276L=\301&\351>#\024\036\276\216:\025>\332\251Z=\030K&>c\013\r>\276\000\326\275\216e\355\275\254\023c\275\212r\352\2744\005^:\022H\025=;E\376<\003\226\244=y\220\005>\331\242\231>u8\034\276\016\004\006>\230\271\205\275\021?\236=\332\310.\275\"\265\247\275\025\200\276<\036m\355=\307\2551>\343i\232=e\253\213\275\373\340\224>\264\275\017\2738x\364=&\374\006>\266\030\207=\312\204$>\237\270\304\275\306\032\202\275@\325)\274\221\342\361=_\222%\276f#\263\275~\360\277<\216\376\001>~\324\017\276\274\321\201\275\302\263\206=9z\251\275>@\001\276\360\215;=\354\315\200=\364\3134\276\035\312\330=I\333\306\274\252z\311\275-F4=\354\033\240\273\271\332z>j\370\200=\376\273\241\272g\342\016=\026\322\\\275\245\272\033\276\0263\005>\267\331\222\276h\307\014>.Qu=\024\246X\275\025c!\2753\330b>\267\253\210\276\231\352\335=I\320\363=\247P\035>\272V\204<\372\306H=\207\\\"=<\231Q>\242\325,>\316\224\224=|Hy=6\312\030\275\343\232\200>F\266\224\275\373k\006>\207\250\004\276\021\330\252\275\376&\243\2728\330L=(\200\304\275eh\357\275\221\215\256=\362m\271=\020\205\032>\253h\272<p\010\3769\273#o\275XDd\275\315\306\250<\343\333*\276k\202\367=\003?x=1*\022\275B\345\203>\235\005\020=\033\023\274=\005\345+>K\213%>\000\265\010<\217\013\205\275rUC\276k\371h\273\236y\350\275\205j\035>\023\300\356=\ns\022\277\216\367(\276&\364\365\275~\n\204\275\336\020J\276\177\021-\275\233\310)=S\010\227\275\320\326(\276]\332\203\275\261\205p=\3552\217=\310\264s=inx\276MWT\275\316\345\032\275\320>y>B|\033\276\366+\'\276c\237\316>!\016\'>\331\360\314<o\372\016<\030\005\000\275[\030\022\276ML\231\274Wgx>\337\262\231\275\341f\026\275`\336\366\274|\325H\276\'x\201=h\3030\276\366<Y>_\376\271=\016\256#=\217\243L\273\371\233\265<LqL\274\365\235\030\276o\3245\275\247\331\020\275J\373\234;z\034\243\274\"\333\021=\333\006\312\276\253\233\240\274\201\005?>\324\267\227\275\n\202\356=*\311.\276j\316L=\332X\323\274)7e>\347&\201>\220\t\r>.<\374\275,\r\010>Bs1\276\017Ki\275DN\014\274\253#V\275\220\262\355<\3412\360=a\000K\2761\034\251=2\252\305=\360\035\225<\304>)\276\006\234\242\275`O8>D\373I<\204#\n>\203\335\267=\333h\240\275\244\031\260=\032\376\320\275\265\214\247>\255c\273=\321g\220<B\352\355\274\036\346\302\274\356=\033\273\262\266\343<n\332\350=\377\302\036=\261\2728=\253\246\270\275\005\273\\=w=\260\275\376\356\013=\320j\247>A\362\317=\210\237\221<c,\025>\r0\037>\367\303!>y\327\241\276\330i\323=S\332\372\275\235\331{\274jee\275\32464>\330Z*\276K\236\014\276\234\252\352=Q\266\253\274\177\251d\275t7\r\276\350\033\237>V\022\212\275\034A\335\274\004\244+>\3738\331\275\346\245\211>\246\026I=\355\n>>>\"5\276\017\251\261\276H\007\017>\003\3523\276\004\202\335=\241U\026\276\300\353\226\275\372\363\224\274\3725\323\273\337\340\275=P\347\3119\\\035.\276\365t\336=\256\3503\275\220#\317<yN5\275\345\251\021\275\250\236q>\022\014\312\274s\332_>)J\352=\304p\242\275o\270Q>\260o!=jS7>\356` \274\222eQ\275\373K\351=]6\235\275\270u\254<\017u\r>DB\002\273\360\031\216<EoS=h\306-\275\217\314\365\275Uv\241=K\222\037>a\t\016\275\253\323\223\275\004{\305\274\363\263O\276\245K\250=\232\326\t<\\E\177=\226\272\277\275\325\273\310\275\344\356B=h\322!:V\217\235\276\347\323,\2768\367\020<G\272\245<\317\026\253\275C\217\213\275\357\252\030>N\265\212\275t6\315=\323\025_\275L\264\270\276\366\305\301=P\277|\2741:\372\274\304\026\357=\316\324<\275\247(\313==\037(\276\305\302\340=\301Y\231\272\313\262\221\276\240\365\022>mn?\275\362%\225<*\007=\275\004\266Z>oK\004>\216{e=\034\352j\275\242\377>=\246\320\377\275&\336C\276\331fJ\276\261\225\255=\311\225e\274&D\200\275U\215\224\275\031T\353;g\246(\276\351\r\266\275\236T\035>+\337J\275\242\316\357<t\225\255\275\021M\246=\202\245\236;\215\233\266=\205\234\027=Lu$\276%\027r=k\362&\276\014P\202=\322\245\n\276\307\2274\275\331\2465=\226\323\235\275\0259\">{\230\233<\374\353\323\275\023\026.\275i\324\026\275\026\347\263\275=\322\302\274\r\334q\274\343v\202\276\242\321e=Xp\306\275T\002\203>\230\227\220\275dg\274=\217K<\276\031S\027<\022\337B\275>+2\276\\NA>\014\027L;\211(\026=\234{\025=b\316[><\265\210\276c\035\365\275\'f;>\365{\032>\366\262\235\276=\033\220\276\276\331u\274\326\331\220;\332\277f=i\325\032>\220yC=\240\236Q\276*^!\276\204z\207\275\232\307\262=\350\363\244<\200\371p\275!\027\270\275\245z\211\275\222\260\265\275T\257I\275P\315\007>\277\353\345=\026\004\213<d\376\227=K\302%>\031\215\353\275\216=,>\351\277E\275\010\305\242\275\002c\245=\023\344\230\275U\275\214\2755\252@\276\326Kw\275\341p\257\275\343\004\345<\177Y\237>\253\026\302\276\277\363\003\276\276\032\365\275\201\263\207\275\245\355M\275\364\207g=K\260\300\276CM\014>\202\274\220\275\235\370Q=]\202\244=3\256\r>.u\267\274X\227\306\2751\276\007>Y\351B\276\203R\203>n\252\216=y\241\201=\014\246\025\276\307\3500=a\341\257\275?f\003>\325+\216\276\270x\204>\247\342z\275\344\205\003\276yZ\206\274\273\021r\276FGV>\315F\252\275\212\241J>\\\314\263\275\232\357\266\275,\372\013=r6\215\275\3602\360\275~\027n\273W\'#>\304)\211\275\267\362\322=\\\021\304\274\253f\274=\267\261\323=\267\322\354=\242\251\374=\2146{\273\310\262\214\275\333j\374\275\205p\332\275\242b\377=\264o\324\273\315^\313=\005E\202\275\273dW\276k>b\274\240\207\217\275\307\005\203<\031\307\016>\316\2329>\355\260W\276\204\240\211\275\337\253\257\275\235M%>\204\245,\276\346\225\374<\036\375\033>o\316\262\275X\360\320\2750\273I>\000\305\312=\016L2>\010\0220\275\201\030j\275\230\226\363=\023r\221=\277\220G=A]\336\275\264\337\036\272\030\327P:\371&\013\276\376M\330\272`\373$\275\005\001\330\275\320\221\376<\327e\016\275\274\034*=\35189\276\0068E\275\353\216\226\274\326@\376=L\300\314=#\314\001\275H\211c\276\255\312\252=\370\354\235\274\324\243\036<`a\363=o\253s\275\270\362\251\275\017\362\273\275\363MT\276\216d\022>Pr\251\275+E\032=\203\270\375\275!\240\253=8!\224>\277\216/=^\200\343=\367)\016>m\261\330=\035\240i\275VI\253\274|g\004\276\204\230\207\276\276\275\272>\325D\250\273\264l\177\275L\272\237=\262\t\263=\005\2119>\326\026\206=u\223X=\177\225d=\350\232\241=]4@=*\332\026\276\217\371q;\321\315\226\274b\305\027\276\365\222w;\316\313\341\275H\310g\276\355$\203=\210y\336<\256L\237<C\013\362<\312\262\312\275\314\233\371=\320\274\256=\221|\000<\034\332A>^\335\364=O\210\030>\003\016\317=\034O\251=\334i\016\275\322\010\001<\256~\225=\246FU\276\214\263\311=\232\266\205=B\246s>\271\242/\276\177\250|=\213\356\377;\203$\023=\304,@\275y\334\270>\351S&\276b\201\025=\251F\342=\346\235\201\276\3027&\276\204t:=\022\307\271\275\333N\273\275\3134]\276\034\316\316\275\212$\024>M\312<>\025\361\340\275X\301\205\275\345\371\273\275\340\346\000\275)9r\275\356Ef=\25633\275G,Y\276\273v\223=\025<\021\2764\224\230\275\306X->P\227`\27588\240=\000\\^:\240c\361=\313!?\275\023\352\266<r\306\241=\353\257\273=\023#\204>\317C><\221\347\323=\214N\332\275I!\247=\230\000\260\275\201Ch=:7\'>\325\242\272\274\21633\276\271\335f\275\274\204\304\275?\271\250\275\372\350\223=p%\205=Dd\201\275T+\316=\037\275\360=\255\223?>C\275\330<\367\323\211\275\254\342\277;3/\014>x<u<\265=E<\311.\007>\317\330\'\273F\363\370=2V\267=\356X\354=\374y\206<\340\002\222\276\312\341`\274\362\313\233<\253V\272<\0321\221>\216\303\352=\021\3231\277C\235\021?\204\266E<\365\033\004\275\211\023\346\274\270Fu\275_\272e=\356\330\373>\002\360p=X\332\304<`,z\274(\0314>lz\007=TQ\003\277\262\206\231=\364\366j\275\003\"x>\202Mx\276s\004\203<\016?\214>\031\340:=\327Rj\274\017\217\013<\366\031\316<U\312\n<s\261\323\275(\270\346>\332dh\274y\325p\275\234Y\021\275^sX\275\253\321\033>\361\221\277>\366\035|=\225\'\002<[-\267=\211I\252\275\273\020\272=\200&\'=_\347\023>\327\325A=\014]\030=E\313E\274\001\247\355=@\235\001>y\035R\276%F\277\273>\211\037>3\366\331\275\2028p=l\217\204=\255.\305\275\262N\351=[\207\277=\316\230\343=Q\230M>\335 \"\276W\236\257\275U\236,>/\025J\276aq\263\275\232d\276\275*\264$;;\303\000\275.\375\304\275D\034\264=)\255\200\275\177YA=\330\347K\275\331\221Q\275:\330 >\r\363\266\275B\225\266=\377\331)=\312t\020\275\273\242\024=p6\235=?E\354>hrh\275\247\211\331=\200\016\014\276\375\327\020\275\006\244\231=\371\374\367\274\001\211\205<~n5\275L\316\013=^\270\200=\342\2743<\034A\274<\204_\211\276*\022w\276\205\326\'=\342\377\346<\346\334\271>\310c\212=P\023\310\276\253\364\036\275\255\200\260=\204\2455=\032\204\314=H\226\333\275c\220%>\270\023\216\275\355\350\342\275\247\312\314=;\221\311\275\360_\324\274r\302W=\013L\370=\274\225 \276\'\221\227\275^\274l>>\253\031\275D\234b\276\231\377>>\366\221\317\275\260\014|\2754x$\276 \310\261=\371\335C\274\265\264\303\274\014\333&>\215\007\002\275\033\010\321<g\010\231\275c\214U\273\227{V\274E\230,=\316\214\n=\262\341b=\342d%>\n\031\273<(P/\275\306n\215>y\002\270\275\357\345c>\250\n\005>\216o!\276G\216v=?\026\013\275p\375\325=\226\353*\276\240\350z>\305\241\260\274#\037_\275\007Ew\275\240M\004\272\351xm<P(/>;\004V>=\374\245\273\177d(\2736Sp\275\330\260\377=v3=<\234s\345\274\361\263\037\274\320\332\225\275\301r6>FV3>\023:\317\275\246\340\254\2750\006\330<\205u\244\275\372\t?\275\303\221\235\276\220\373\216\275c\317\226\2738;!>\211)\246=\324\361\n>\356\375\327\272rg\203\273)o\266=(h\t\275\257\321\024\275\200a=>6/\n=O\205\240\274\267g\312=#\nz\275s\227\247\275\327\353>=\347Xn\274\240\267\\\275=\356)=\322N\331;O\367\203=\225<\263=\355\254\034=f\"\315\2766\372\235\273\001\240\252\275wP\024\275kM\312=\300\216\316;\244\321(\276@5\226<3Q\305=\344\225\214\275T\225\001\275\222cK>-e\031\274`\031o=\324X\266\275\013E3\276]\223\033>O\337\257\275\032\300\033>\350Cx>\320\344\363=\027\340\211\276]`\256<2\302\324\275L\213b\276s\203@\276\335\203\216>7Y%\275\361u\r\276a{8\274Vv\007>J\324`\276\326XI>\223\265\213=\202\215\304=x\231y\275\312,\214\276\231\304_<\226\320\360<\024+E\275\320i\222\275wd)\276\374\234\311\275\330\235H\275\003F4\274\034\345H\276\257\233\023<v\0002\276\t\374?>\024\207\246\275.E8=\214\345\200=\300\201\353=U\277l>\315D\374=\204\3764<\375\030\037\275#\000\350\275IK8\276\314v\245==\204\372\275\225a\205=[\250\300\275\242\233\025\276\305\227\233\275\225\374\037\2750qz\275[\255@=\2720#\276!\010I\275L\206P\275\202-\225\274\204\340p\275*\337\005=B\341\202=?yc>\234-s>v\273a=\350.\274\275.\337Y\275\362t\272<*\234\340=\243Qq<\235B \2766\325\311=\375l\t\276\316&w>\275_\255=\340\000!\276\315\3344=G\327\024\274\035e\020>a\013\211\275\263\244w=\300J=<\302V\253\275x\032*>\344\217\035\275\340\261\004>j\313\030\276\271 \311\2754n\260<\363\276\364<\367G\215\275\316\301_\276\334\232\217\275\013mo;\271U,\276\264\250\022\276\307(\271=v\326\267<\357Z\366=ml\353\274\312\001\r\276\030C\275\275\230\0063\276\304\222w\276\024\373j\275R\310\005\276\234x!\2765i6\275B\244\010>\371KU\276\222 X\276#\342\026>xHE\275\207t\014\276-\274\005>X\375\032> $\346=D\'8=)\264\010\275\362\343r\276\361# \276\203\2148<\024\026(<\003)\245=\255\210\240\275`\352)\275\205j\022<K\244\364\274\367\350\240<\271\375\300<B\315\241\275\341\226\017\276\247\223[<\343\216Z\274:%/>\354[0=1P\364\275\215e\212\276,\032\271\276\n\265\345\275\223Nq\276\314z\017\276\207c\223\275Db\241=\225\023C=dN4>\212\242r\275\022\330W==L\364\275\037\217\333=g\223\025\275\372\256 \275?\260\336\275:\336\222<>YO\274\177T\023\275\254 !=\315\307*\275\251\007\022\275\344\354\220\276T\334\027\275,~s=\221\025\301<\204\000\315\275\026%\251<\014\263@\275!\335\230<\333\006v\276\376D\250\274\256\035\270\275\252\210i=lJ\n\276O\335\314=\273\230\013\276J\323N\275\215\032\276=\202\023\322<\264\263\2279\30286>f\242c>\3238\353=\336+E>\215\301+>V\311\207\275\237\222,\276\247eg>\277\365\372=\262\205\313\274I\247\201>:B_=\2565\177=\331\365\234\275\016k\200\275=\221e>\275\312\211>\317Df\276\337\222j>lX\263\275\200\253A=E\326\214\274\335l$>\010\322\006\275\214\244\253=CY\226=\234\363\"=ad\230=l\r\310\274\331}\020>\341\374\377;\235F\343\275=\346\006>\341|P>\322\226<=\241.\266\274\231\270\242\275\364!N\276\313\201[\276tG\026=Y\006[=\000\261Y=\315\304T\276\311\245)\276\225\351\356<1\267G\275\263K\313<\265\364\203\275y\207\354\2743 \362\275X\346!>J\366\331;\266\257\255\273\327\211Z=\320$\r\276R!\010>K\311^<V\"\273;\277\353\265<\212He\274\255\006\315<\230/\241\275\253\360\342\274\222\362`\274\324\322\372=\337\226\244>\317\361\315=\321\361\024>\026\035\007\276RM\005>\353K{=\375\362\251\274h\365\341\275yF\211\275\"\240S=\234t\270=&\355T\2768Y\205=\245MI\275a\376\210=\3053 >S\242@\276\203\253}\2756\340\261\272\307|\002\276\225,\335\275\364\204\355\274\346#z\2759X\305\275o|\002=J8:\275\351l\207;\204\245/>\272i5\275\243\366\251=A\022\250=\377\241M=\256gk\275\274\213\246\275\302\356\225=\342\364\022=iJ\376=\022\266\"<\t-\266=\373j\033\275\377\246\210\275\275\332\277=u\354c\275d\340\316=,\343+>;k\223<8Kr\275\017\213V\275\031I%>r\276\027\273\202yJ>\272s\342<k\210\344<$C\024\275\273o\341\273\030\005U=Q`c\275R\345\252=\000\347\'\275\004\3604\2754\t:>\021G\010\276z\343\214<fB\213\276b\203g>\252\3526?:\264\031\276m4\371=^D\325<\\\2105=Z\277\020\275N\241^>g\277a>\271\343\004\276\324\200@=\233y\036=z\362u\276\275&\263\275\322\013\220\274\275 \n\276\333\n\221\275\2754(>\231d\251=\374\371\354>\304\312\377;\034\242B\274\375\230/>=\203\330=\361\264==\207\313\254\275\210\014\353:\375\355F\275\001\263\003>A\226\214=\020\227\376=\202;\036>\311f]\275\315\352\342\274\340e\210>\364\263\304\275wv.=\024\013\313\273\272z\221=^\nd<\215\322\001\274/\022V=L\335\204<\34665>\302\244\357\275\0271\227\275\241zt>|~\177\275\200%\024>\033`\230\275P\255$=\3223\257>\376jq\275\246\\\346=\264\3302\276D\323\014\276\007\0337=\t\035\007\276\2124Z=\205\206\200\274\357\337\233=\003\020 >\036\310\362\275\024\212\004>\252\222\031>\223\177\343\275\331\321\023>\325\037\275<y\355\206\276\033L\230\276\233\356\025=$\205\214\273\255\242\200=\276d\364\273^\330\010>L\310\010=D\276\361=\336\271\250=\350\376\252\274\272\305V<%7\017\276f\243\273<\007\205F=\360\014\r\276l/\321=\017\2630\275=\013\205\275\223\317\240\275\0361)>\367}\r>\362n\247\274\324\2613=y\3152=:z(\274\243\023o\275\354\257\314\276\270\263\021\275\225-\035\275\230\362\322\275\371a\202<&y\336\275\205\246v\275\275E\363=\234\353\210\275@\212\244\275UD\341=l$}\275\275\212\373\275\357\300,=\350\232+>\242\241\372\275\216\304\234>cM\342\275\244\255\235=\227\337?\276\356|R\276@\307\261=F\0161\276\236\005)>\232\014\330>bR7\276yWK>\266\002\251:\247\334\250\275\310o\213>\033\325\020=\32735\275\360\342R>\274\332Z\274\317c\345<\205\351\317=W\3403\275\000`N<I\247\321\275\345]\226\275\205\3079\274\206b\237=r\022\227=(\332\035\275\366\t5<\332\250*>}\306\305=<\031)=j\023\t>L\223\\\276N\343\307=k\353\016\276\217\010\037=X\336\245<\345\262\312\275M\251\263\275\355\377f\275\256p\245\274\200\221\277;\276c\224\274\347$\000>\207_\001\276\276\360\016\276\264\375V=\213j\t=\326[>\276\r\364\036\276:\'Q=\364\257\016\276,\302\371=\314\232(\275\036\371\2679\264\010\';\355\307f<8_\013<l\341\r\276%\360\337\275\372\205\354\275E\033:>,\366\242\275J\221l\276\350\343g>X\212H\276\342\324(>\277L\373<{wE\275\\V\311\275\377.T\276\0264B\276\276!\034\276\276\214`\276\224\353\316=\0356\220\274\261\220\257\275\332fL;\312+\256=\243\303\236\275\026\303\261\276\302,\227=VM\332\275]\275\024=+M\006>\373\353\321=\016Jk\275\021Q\223=\327\261-\2759\200.\276OF;\276;\243\352=\247g\276\274\303\036N=s\331+=]\241\270\275\244\t\312=}1\276\275\300f\000>\314s\016\276\007q)>\341Ts\276\333\0105>\352\303g\274\240\214\257\276\006\355\271\275\024pR>\342\247&\276\'\234\242<Z4]\275\360\203\216=\374\376u=\305Q)>\233{\227;BH\n\274{\226\200=\016\244\004\276\227[)=\021=\323\274\2731\321\274\300M\017\276\361=Q\276\342\245\314=U`\236=\013Y\252\275\030\032 \276Z\336;\275\360\216\317\272\227u\023\275\207F->\345\225\217=\037Xp\275\301\033\207=\231I\217>Rr.>w\234\305<G\230L>\227D\200\273\362\345\261\276\351D\032\276\2643+\275l$t=\344\275\266\275\230\225S>\354\315\362\275-\302\305=`\315\275<G\2210=\225M\">Ma\216\275 \214\330\274)fE>4\002\311=\223b\225\275\371\004\313=\352\341\251=\212V\227>\327\225\210=\356\345\320=\205\271\224\275+c\007=\026B\335<]\301\235\274\252\340\261\274u\335=>\257\321><\021\3431\276=Z@\276\230kN\276\014yH\274\326t\211=\303\276M=\017\261p>e\034\276<\362\034_\275\025Lo\276T\264\346=\335\230%\276\262\002%\276\3500\022\275\347[\002\276\371\3545<Gp\216=\036\224\014\273{<\252>(\244*=<\254\326=\362yZ\276*z\267\275\220\353\233\276\372\014F\276\327\000A<j\031\317\274\316\030\312=\370\222\237\275\022\nZ>\003\021\215\276\370\334\">\344\314\226\275\312t\257<x>\010>d\253\035=N@\036\276\272\255\275=I\201i\276tf\366\274\350\020\207\276\353f\245\2750\207M=\034\212\264\274P\276\204\276\273\372\207<\252\257L\275\032k\036=\3167k=\277Y\311=\004\315\020\274>\276\237\275+T\241=\024\322|\276\224A\000=#\333\343\274O~\n\275\003\356\013\276\356\273f=\243\177;\276>\313\253\275sE\377\275\000\230+\275\010I\">\255\020\227>TE\322=\203\310\241<\023[\'\276\212\342D\276f\320\275=\305Q\307=\372X\362\273(7\266<\311\204\231\275\246\013(=\"\233\226=\271\025\006\275\223\256\215\272\017\001\003\276\360M\224\275\3405\233=\233\365\267\275IoP\274{\233A=)\332\374\275\327\361\323\275\220\036\214\275\334Q\\\275\362W\224=\205\325f<6\244.\275\220\376\003\276\002\235\204<\376&<>h\334\305\275\2201\362\275\260\211\376;t.\245\275wb\312\274\305\306\222\275\2106\336\274NwY\275\330\007\266=\266\262\010<H\203\235;\246\310\030>\312\233r>\026\001\024=\336\030+>\265po\275\037\003\252\275\027\235\211\275:\317\202>#h\253\275\216\332\026\276\314\354\035>L\n\230=\276\017\352;L\231,\275\363@\370\275\312?\330=G\006\217<\341sJ\276\354m\241\275\376\372\360\275\\\303\214=\346k!\276g\363->J\350N\274\261\365\006\276\2067%>)\3711\275\210\217O\276,\355\262=\rq\362=\032\260\272\273v\003\373<f!)>\300~_>\337V\361=\034q\223\2742Ui=\307\341\216\275\216f\210=6\033f=\245\322\321=\342~/\276\252\237%;\353\367Y>\010\3063\275\246\221a>y\353\275=I\255\232\273\355\350R\275pb\211\275\204\232\001>\0324\200=\335+8\276#\001s<\304\007<>\325\326!>\342\227@\275a0(>\360xs<\013!K\276\314v\305=\371\035\321\275\362D\000\275\220\013\356\273`\224,\276\320\303\301<\317 \327\275\346\221u=\241F\306\273O\014\254<\036\333s<\364\213z\275\3622N\275\214<\351<\231\263\203\275\007}7>\250\374P\276\317.R\275D\323t\276\007!\317<\"_\355;\320\021\244\275c\203\025\274\313B\322\275\214\342\231=\244D(\276\372\021\001\273\266\341T;\307\312\206\274\355n\034>\362\347\270\274X\330\002\276R\317p\275Fi7>\245\347\335<\262\024n>`\236\316<*K\206\275\232?\017\276\260\340\366<T}\251\275\216W\036>\300\276\244\275\234v$\275\020[\267=1q\023\276\304\224\025\275\371m\314<\204\275\376=\224T\350;\221\247b\2758\212\261=\022\3111\275-\236\226\275\235\275\212\275\244#\217<\251\374\335<\2509}=\031\256\216=\222\033K>\330\030\222<:\341\237<g8\203=#\031\240=\315?\023\276PS\255=\324\275\322=\231\302<\275b\033\\>\372\200Q>\253%\317>\372\367m\276\220\"\312<\024\254\256\275\014\204x\275\246\340\230=\276\004\323=\223\021\357<\330\264d\276`i\326\275m\243)>`\371\266=\004\214\013\276[\221\305\275\272\302\255\275\037\356\334<s\001\350=\016\"\267=+\233\n\276\021:\243>G\024\342=;\tS=\313\355\022\275\034\372\006\275-\246\030\276Q\330\312\2748\240\364=\370\034\226=\2262\365<\325]\371=\\\235T\276j\274\213\274\"\'\222\275:\217\327\275\333\357\256\275h\236\213\275\261\364-\275\370\262\003>o\355\223=0\220R\276\304T\"=w|l\275\322\272\224<\247b==\333\370V\276 \362M\276:]\017\273\360\242\006>\002x\323\274\0244\334=|\226.\276p\033\270\275\263_B>s\263\242>\331k{>\310\017\003>\211{\314\275\356;\007\275\200Z\323<z\211\001=\261\314\002=\014\'5\276C\222\223\275\371\233\312=\312\267\305\275RO\355\274\337:\224\275\254\272\361\2750\260\322\2759\276\023\276\347\032\370\274\303w\013\276|\000\236\274\244;\230>:\023y\275~!\034>\010\215\357=m\"\311\275`\304`\275Tk\351=\211\312%=\014~\017>\225\370&\275\033n$>?A>=\271,*\275R\020\306=\300\246\210>\353.f=\205>]\275\251x\334\275\001\016U>\336\243\341=%/\247\275\2271\266>\357\222\034>GC\037>yX,=\250\212*>\261x\035>D/\246;\365\232\034=\357V\317=\313\007\270>\276\306\206=`*\225=Rm&>J\266\n>J\t\360=\027o\232=\2174C>\216\301\275\275\315\300\333=\000\210\310\270w5]><d\251\275\353r&=\2053.\276\370K\244\276\324\177\007\275M\202\304<\243\365\316;M\366\375=\331\204t\275f\332\226=\224\367\325\275o\016\206<8\206a\275\254\274=<\001\357a\275~!+\276*\327\024>H\201\377\275m1H=\017\026\007<:C\334\274SxC>\306#\010>\313I\372\275\004\r\255>+\314*\275z\316\320\275j\323\005=\261\360N\274\306\363\213\275\261/\311=TF\"<ie\220\275Wi\364\275b*\217\275@o\353\272\220\346\n>\003$\254=\244C\025=v\213\300=\251\030\027<\315\014\345=\302\026\017>.\364\213\276(4\211;\201\215\177\276(e\350\275\031\265L\275\000\331\307\275E\177\006\276\202\364x=n\315l=\367S\026\276V\242,\276\252\261\350\275\253\224\024\275\274\326\003\276\004PA\276\322\316\327\275\223\rG=\323=\372<@\347Z\275k\245X\274U\035\007\275\"V\231\275\177\025F=2\023\200=\263\244\022=\177\253\202\276-)!=\207p\013\276\002\201}>}\355\305\275\274\304\352\275\315\004\275=\004\305\307=\307\031\030=\205\031d>\322P\221\275\316\306\024>\241\025\001=\001E\000\276\247\255\202\276\030\224(>\204\242\302\274\306??\276\324P\020\276\007\005\355=_A\026<}\234\367=\333[<\275\306[\204>\270\221\257\275\211!`\276\274\357\230<\022\"\263\275l\275\031>\370(?\275p\272\370=\034\0367\275\311V\246\276\034:\017\276`\007l>\276\310D\275<\3278>d\033\233<\276\371\252\275\234\233\377=\240\341<\272U\010~\275\361\351\204>\226\364;\274\0209\317\275\202\267\325=z\307\233<\006\246\367\274d8\351\275\005;\226=\303u\261=\266\261\232\275`!_\275\236\n\026\276\304\214\264\273\245ow=]dg\276\243\331y>\246\331\220=\217/o\275\220Ul=d/I>g1R\275?Q\277<\325m\314>\271\333\036>\247\276*\276-\013\233=AK\233>\032KL\274\3151\270<\'aZ=F\320\306=:)T=\001\002F=E~\t\276b$\037\275\206\026\027=\321\213#\276\335\002\177=a\303\n\275\312x\321<\013\373\226<\241D\217\274\t+V>\034\035\276\275\003h\022\275S7\227=>\346P\276\223\376\310=3`\305=\254/\006>\336Hl=\260\200=\275\032\304\317\275\357\367\352\275\303\0079\276\023\034\302=~\343\030\276\343\243\300\276\321\332/\275t\310\233=\241\340\t\275s3`>:\232\324\274/\372V\276^\307\206\276\017x\272=\002\201\021\276\3005\276\274\017\333\343=&R\325\274\361F\255=\237\320\240\275\373\344L>\256[L\275\'c\237;\214\270\007>\247\014\305\275\253,\234\276\250-\307\275\r#\210>\276\005\006=\263\n+=\221\024\031\276n\247\323=VA\304\2752t\352<\373\353\230=\222\347\211=\332\2212\276\350\007S=I\324\325\276^J\321=V\344J\276\360Ls\273be\213;\3269S>5\'\276=)>\031>R+\373<\340|\2109\024\227%:\233\206\245=\002`\363;p*\200\274\002\272\025\273\005x\000\276\222\304|:3z\333<\320\251\224\272~\316\242\274u\377\251=\320\235T\276DaF\275Wk\273\275\236\257.=&\213\376\275\200\244\330<\022\006\263<[\322\336=\3761\257\274,\374\227\275_\033x\275\235\214\021\275&i\262<\251V\241\275\t\303\033<~+\261=\275\027\200;\007\214*\275\3246s>\272\314\331;\262im=\250}[\274\257\355\007=@xd=[\353\252=xv_=\037W\014\275\346O\327\274\376\005\033=\231\360\311\275\353\351\233\275\373\017\237=*\223\033;\000g\260<\233\212\006\275\345\257\357\274H7g\275\267}\212\275;\251\037\273\014^\003\276\376`\r>\224c\364\273I\271\213>\006\345\006\275\337\325\026=\203\023\236\275\3364\030\276\375\320\016>\207d\321<\222\n\223\274n\323\002\275*\257\223=>v\\=\014#f>\0172\332=\322I\t\276;y&>\333_l>\210\022\262\271<\277C>\0370\010\276}-d\274U\004\201\276f)\\>jW\340\275\033\210\354\274\304\\\265;\002\270\370<\226\245&>M\226\027\275\312/(= \302M>c\014\277\274\217\006J\275(\177\001>\021\\O>\335\235\357\273\\\352\003\276\014\276\031=\263\231V=z\305x\273\363f3>Ve\353<\244O^\275V\207\365=\0248\337=\225\002w;\'\010I\274\377\235\255<~0\302>Bhy\274\254\254\031>\273.\330\275\200o3\275\324\240\023=\342.\366\274\241e\315=\346\333\250=\321\037\005>\320x\311<\010y\214>9i\216\275k\021\010\275\270\'_>\260\205\353\274\030\321M\275\037+\275\274bj\360\275o\205\001\275\227\346K=n\354\025\276X\340\032\275\375D\036\276\2054\217\275Vu\">\347\340\036\276\205<\212\275\331\210;\275\360<\322\274\356\250\000>\020W,\276\rs\307\275\235>K\276b\224\213\276\332\3060\275\261\262\255\275|\001\256\276\264N\201>b\362\267<\336?\245=\'\244E=\232\327\223\276}#\r\275J\035\234\275\016\0374=\301\270\203>\350\374\006>jb\272\275#V*\275\001\034u>\314\350\300\274o2`>\360\010B>\311\245\206=\237f\202\275\264%%<\251g/>C\276\016>#Q\274\274%\233\245\274L_\327=\370s\370=\374\372i:\273o\356\274N\271\227=[\273R=\260Iw\275\340\204\">\337\256\323=u\251\240\275\354\273}>\360\\~=\336\024\204=\003\335\226=\020\211\037>Hi\007<\367\223%\275\372!\342=\327\023%>\271H\363<\260\340\353=k\367b\276 \222\r\273$rk=zxq=\177j\036>-M\331>_\356\235=Y\360\211\275w\317\213<;\2559\275e\215G\275\334_\223>\236\343\325\276H\327q\276\'\2738>\221/\334=\010\256\001=\027\204T=\026\231-\276+\343\266=m\333\255\275\324|\t\276\374\t\275\275\036\"\276\276\246\036=>\225\276\235\274\200\262r=W<Z\275\242\271:>\2768!\276\310\303z\275X\243\016=\035\366\016\275\341\3637\2754\224\000>\311D\327=n\263k\275\352\002\226>\256j\177\275`\025\310<\032N\034=G\007?\275*\272\311=d\277\236\274_\\\211\275d\227\336;4\273\307\275_\035Q=Z\035\206=\2529\217=\200#\031>\2108\005\276\342\315\016>|\352\371\274\024\364#=\301i\"\276*]:=\257\022o=\255/\346=2&\310<8~\317<L\327?\275CW.>\330\312A=4]\207\275\302\003\220<N\360\"\276\227\010\031\276\nd\375\275V\200 \276\332\316p;\361\235\373\275V\3519\276\\\270\007\275Z\323\034\276\346\177\205\275Y\016g=_\265\372\274+!\233>h\207\324;\022\2607>m\274\355\273W\231\223=\251\320\017\275\2428(>\365(x\2758\332\341<\205\273\346<\260NR=>k\021>\375\277\301=\225\005\210\274\254\0138>\237N\024\275\204\375\014\276I\345\240\275\276Y6<\036\010\333\275_0\260\275T&\026\276\236\220\325=0\274\'\276\3566\262\275]\275%\276\016\032\014>\256k\332\275\333\200\254\274\355t\232\2753q\230\276\244\325\025>>\033*>[\261\263<\004\213\020>\257|v=\360\266&\275$\036o\276p\266\245\275W$\302=@\370\246=W\331!>\216\354\222=\252-\014\275[!\255\275.Id\275\3311\027>-\261 \275m,\030\275\365\020`>\325\036J\276\244v\324<LN\215\275\225g\351\275\221\374\306=\304\232\037\276\250\335\010\275\352\002\001>Gz\322\275\212\023\000\276\232\261\315\275\373a(=\016\374\217\275\235d\227=<\321\370=\255\340\221=\332\tT>\027m\302\274\013t\000>\016\237.\276\317\007\252>\274\n\202\275=\266\007=\034\371\270\274\031^\342\274\2754\262\274(f^>\242l\005\2751\t\307\2744=\236<\004\255\t\274\365R\331\276\341k\231\275+\377b=\365\267\300\275\370\263Y>\362\273g\275%\265\027=9l\032\276V\373\024>2n\267\2756\346.>\207\026\r\275BT(<>\n\201>\277\356\231\275y\001\357<^Mk=\374\231i=\302v\377<\211O\216=}\333L>\2225\'\276\350n\242>\253r\254\275\250\312\205\275\330\271\215=\255\202*<\"T\002<\266\200H\275\310JK>\363\361+\2753\321v\275\022\261X\276=p\030\275\361\024b\274\257(\303=\355&==\315y\t\276g\207\327\275\321X\203>G\006\237\275\333\250\260<\253\2413=\322m\267\276\250_\373=\232s\275=`\014\217<\\\027\365=8\254\237\275\202\347\314\274\345>U>4\tv\275\334b\201\276\204\362\030>z\204\276\275r\337\256<\354\252\314>\356\301Y\276\346\2408\276U\243\353\275\026E\377\275\246\237N\276\034K.\276D\336\036>\376\244\030\276\317m\333\274\373U\034\275\365\345Y<\305\234\025\275\031\221=\276!9\337\275\300\216\341=\274\177\361<\242gw\276\365\306\253\275\037\022\354\274\262\312\247>3\340\242=\'\3016\276\020#\227\276\020\035\010\276\253\3607\275\034\025\265\275\372\327\204\276\226n\344\275%\321\007>\242\312\177\275)\265\353=\232NR>\302/\366\275\272\374K\275\005I\013>\371\303\211\275rF\006\276x\345K\275\247S!\276\322\316\375\275\334Y\301=\323\255o\274z%\326<\230Z\215=\250\024\233\271\0276\367\275\002\016.>\272(U>\270z\205=\177\020\014\276\302\300\252\275\254b\302=\226\350\203>\265\\\335\275\036\246p\274r{\027\276\225\326\370\273\000[\030>\235\325i\276\272\037C\276eT3={\030\243\274\3361\240=\343\'\n>h\252A\276\232sW\275\264\342\351=0\314\343>JR\347\275\250^R\275\334)\030>\205\342A>\324\007\037\276\'?5\275\302q/\275:\243W\276\t\302\321\274\275R\254>\200b\260\276O0\001=\340@\327\275@k\035\276\340\374\235=7a\001\276]{\266\276\260\374\n\276\376\342\221\276\244\215\">3t\\\276\273\300\374\275\021|M>\tC\231>o\363\262\275\241\363\246=\377\221\217\275\241~\373\276\252\002O>d\325W\274~s\267<\320u\226\276\363\375\217\275\036jg=\253\\\373<\210\007\322\275\215 \212\275`*\347==\035\023\276\r\263\235=\261_a<\310\220\301=\264P_=\272\260\206\276n=C\276\204JQ\276 B(=H\277\006\275\345\364K\275\334\022\335\275\265\017~\275O\233\215\276\355\3227\276K\r\313=\323\025)\276\324\021K\275\350\340\021\274\026 i\275s\017\276=\263q\010>\227\350\340\275\317m\005\276P\337e\276:`\353\276\335\033l\274\257b\354\273\216\332\344\275,W\204=rB\332\275C\242f\275iL\202\275\236\226\245\275\337d0>\325;\222\274\010\334\225\276\244\237\274<\361\026\\:\204\364\323=\320\277Z=#\002\232=>iA\276\001\\H\275f\231\010\276(\202\017\275D\273\303=\215\221\257\273\337~9>\332z\270=\376N\211\275?\234\300=\320\304@\276\013\351\004\275\230\251;>\036\2676=\203\352\022\276\311J\'\276\263O\035<7\303C=B\027\202\275\274g\016\275\356;#>\311\234\246\274\346\020\004\276\2533c>\322W\005>\020\254\351\275\335\0140>V\246\016>6\255\231=\327-:\275t\330~>g;K\276K\n\022\276\022\251\025>\256Ml\275\272Z\214=\010A\220\275\214\310\346\274Q\022\037>\245>\211>\307 p\276\352\202Y>\306\2734\276\351\224\313\275\354{\362=\375\363\020>\217W\007\275\265B5>\305\253\235\275\025\253\005>d\016\247<e\2047\275\202F\356=\226Q\267\275\321}\227<q\273\006>\340\037\024\276V\212&>fu\217>,%\227\2759v@\276\353\225R\276\005\325\350=\372\245\372\273\322N\327=\002\315\002\276\375\240\343\276\350\201\177=\025Gy\276V\214v\275%\226\223\276\202\\[\275B\n{\273\3053/>|@A>c:\263=\000\212\232\275i\300\245\275\2325l<\343+\314=g\270\376\275\0146\334<Z\354\223\275\246\330e>^\036\213<R]\314=\024e\"\276o\017\237=OHK<\\\027*>N\333\216\276\266\177\342<QX\027=\335\320\004<\322\320T>\220\223\022\276\372lT\276(U\016>HR\233<\223\231\351=\334SP>R\202\002\276p\354\035>F6S>\002\316|\2762(\340<\267\251+<\267\3259\276/\231\336=y\325\007\276\244\023\005\276p\375\305\275\371\271\226;\352R\013=\314\225\027\275\031\317+>\320S\034<Z\365\340=;\023~>\275\265\256<\365[\306\275\302!\332<O\022K\275\252\2156=w^\033>\240\344z=*/\260<3]~>\347*\372\273\331\310\203=!/h\275\274T\224>J\362\261>\002\345\212\274\275Q\003>!\360D=\267\354)>\000\301\316=\3530!>B\253\240= G\000>\347\241\275;(\030\000>\366^\263\275\374\264\026\275\312\200\361=}(\205=,p\337\276neu\275CB\262\275\314\356\270=\277X\317\274z\321@\274Zh-=k\206\327>!)\022\275^\325\200>\224l\376<_\250C\276\253\216~>h\207\274>R\203\320\275\005\034\021\275\323F\275\276\303\354\335\275:\337\031>\203\262\327\275Q\205\021= #@>\366\323z:it_>\010\263f>{\245\306\276j4S\272\256\032\034>\234.\016\275\361{\206\274\017\332\330=\000\230\014>\227\230/>\256z\313<N+2=\360\337C\275\220\273R\275\327+\203=\273!\030\276\013\367f<\200(\031\276\013+4=\014\020\3479\246Z\332<\030\252\333= \002\346\275\331X\\>\341N\351\275\237Co=\302\211]\275\2600\261<\355\311\345>r\313R>\374\",\275U+s\275\000\003\313=\375^5\274\334\246i>F\364\027>g\266\312\275p\227\233\276g\034S>q\007\177\275 \376\377=\310x\326=-\361(>\260c\273\275\242\2443\276\002\357\367\274\376\353\373\275`p\n>\251\243\356\274.\031\353\274\r\300m\276\221\032\230\276\343\311\026=\224\253\205\275j\213>\275tB7\276\340\353\242\275S\211\r>\002\253\254\275x\320\241>:\265\270\276\261\341\375:4!\010\274\333\327\260<#\221\010=\031\r\333\275vnH\276\367(_\276\253\361-=y\014\n<\317\364\211=N\340\247<\371\276\017=\034\026,\276A\037W\275\232\034\226\275`\031h=W\344\340=$\310a\276h\235\336\275\001\261\326\274\2116+>\374\020&=\306\235M\276\253\000\275<\202J6\276\377\353\001>Ev\031=:\313b\276\262e\006>^j\230=\353\227K\276\325\325\036\276\212\005\032=\031\225\335\275b\017\316=\'\237\004<L\263\253\276\212)\025\274\001\370\\\274q\032\222>\007\034\021?O{\005\276\245\3167>e\343\227\275?\222\220>\250\271v\272\251U*\275=\216#\276\316\336\225\274\026yR\276/5\025>\223\004.\275\250c\302\2750\362\243\275\357w\335\275\232\356\200=+\350V\276\331`$\275\240\000\271=\237\254\375\275x\350B>o\272\325\275\371\261\\>c\317H\275J\241]>\013\275&\276\246\340\211\274\307\333\336=\014g\226\275\216y\203\275\374m\376\275\035\225%\275\274\371\322\275\267Q\207\275`i7>\240\027\261=\225:O>~\252\351\275n\232\205\275;\303\356<\032\230\021\276\244[>\276$h\r>\2626!\274\205\026\252\275\220X\366=\315,\374<\264A\270;\214\235\237>\243e\216\275C\227\014\276\240\370\204\275\355\376\263=\261\033c\275\354H1\273\270.X>\340\341K\276\263\203E>\260i\240<\226\372$<K&N\274\030\232\271=\373s\256\275{\366\006\276r\356\035\276\\\335<\275x\033\277\274&]A<\3345>=tvZ\275\341\251\203=\351\200\023\275m\367F\275\213\352\006\275qA}\275\225_\234\274\271Q\343<\016\365\277=h\255\336;Z`\352\275?fR>\341\016z\273\036tu\275\333\236\003\276\'\204^\276\372U\304=\206\027x>P\230\365<\224\203\240\276Q\022|\275\027O\237\275\224x0=\272zC>i\263\275\276\007\367 \276\311\227\003=\260]\206>\035\247\221\276L\333\302\275\237\232\023>\306\005\003\276\257\022\354\274g$\360=\206P\034>\212\rV>\256\274\260\275;sB\275\253\347\036=9\223\321=i\031\006\275\2057\204\275\247\002\212\272\303\005\304=\034j%\276\272\345\007\276K\027j\275\256G\355\275\364\370\"\276\341j\026\276\262<c\275\020\325D=\332?]\274\032\221\016<\260r2=\226\232\357<\342\330\211\276Z\0217>\330\352V>\001QQ\275\270z\">OC\233\275m8\216\275C\356\004>\313L\260\274a\260\017=8\257\t>\034X\035>\243\277\201\275\336JQ>\305\347\353\275\260\275\023\276 \306\020<\n4\220=\021Q\253=\205\305\271=J\360\326\275\250\262\n<(\031\352<\341\034\213\275\255\307\231=\243\356\262>u\225A>k\217\"\275\215\356\354\275\320\357\332=\324h\t=`k\'\276y\"/\276\347\274 =vz\025\276\243T\326\275j\251\331\272)\002\030<{jY\274\033w\251\276\226xv=\360\251\002\276\336\3604\275\003\257\215\274\206^\032\276QPU>\322\271\233>\020[ =y8\223\275(\221\002\276w \t>\227\211\266\275n\361\311>J\367\243\274>\377\320\275\275\257}>\335\264\007\276me\337<7\"\023\276\370\265\224>v\326A>\034\310\030=6\"\356\274\205rI\274\227z[>\016M^\275e\204\227>\273\n5\2753\364\010>\255\334\354<\331:\003\276\261E\202\275\313\242\274\275f\004\014\276\324\377O\276fV\217\276\2447\241=\252a\020\276\323\243\272\275Y\022\026\274\350\327\372\275\312\270<\274;F$\276cGV\276S$\372=,A\217\275q\2721>51\201\2762\267;\274n@5\276\314\352\210\276\315\357\227\275Oc\004>\351\017g\276S]\316=\303\014H>\234\227\"\276\234j\036=Z\305\363<U\0278>!\264S\275\247\206z\275)W6\276d\337\324\274\326\244*=eg\003\275\227\241\010\275\237\203\310\275s\230\244>\331\352-\276\014\036\313\275\030\331\010=\320\250\231=\323\246\334\275\315\247H<\003\267C\276\371\230\276\274j\0054=\001\275N\275wt\201\275\010\317\233=\275\273\311\275\2740w\275\377\366B>\254U\026\274\331\005\306\275g\232\004\274!\327\231\275w\317\t>*hp=\215{r\275\227\223\311\2755\264\235=V`\006>V\275\367;\231:\213>t7(>\352%\204=u\354\256\275\377\335q\275,|\273=8\r\355\274\030 \354\274\200\370\232\275\304\227%>`\360;\275\003k5>W\203+\276\231\271\344\275\177\302\207>\223~\244\275A\216T>\2629H=Q7\345\275w\'\252=.\323E=\177\304\226\275\346\340\227=\307Sh=\242\372\246\274\214)\302=\326\0009>\363F\375\275:k\036\276\246\274\213>\276;Z>\022 \374\275>^@>\341n\357\274h\330n=\216\017\355\275\005\037\014\275\216\320\244\275\037\276\022>\200d\265\275m{\334\275\214\027\245;\022Z\023\276\314\013\254=\332\205\016\276\230\257\025\276\2452U\276\274lh<\326\"\240<\255\224W=\310\324\273\275,\022\367\274?\006_=\327\322m\275\025\371\372<f\302\221=\267\315e\275\025\372\336\275z\321\263=\002_\265\274\232\263\270\275\357\000\356\274\245\362\021\275\014X\254\275t\272\376\274\251\210E=Z\230i\274\275E-\274P\264\"\276z^\305\275u@\261\275\254* \276p\301#\275\221a\237=\305\006\230\274\"h2\274\326\343c\276\311\345\313=\327\311\216\274\356\255\331;\243\344\014>)\371\231\275\037\216\201\274\252\022\\=\301\220\356=\030\031w\274a\274\201;\367)\330;\276\207\032\276\273\340\307>\032\014\306=k5z>\236\272\263\275\270\000\246=\006\t\006>\233G\350<\240\224.=\244\254\210<\250]\331=\376\355c>\341\204K>*j\214\275\347\257\313\275PjE>\212\031\010>\225\227&>.0\370<r\275\310=\254F\243\274A\210\240<\313\013\035>\037\362*\274\026u\203>:>S>\006\343\264\275\323\r\254=\341\204\325<\266\030\230=\346\204\373=\r\3776>\230a{=\005)J>\310!~\275\302u\202>E\252\347;[`\242=~\374\270<\013\375\311\273\031\344\205\276\335\351F=\014\361J=\036\263\273\275\314\374\234>\262@]=\205\350\351<\264\217\224>\216\364\301\274X\314\234<b\353\310=D\341\226\275z\243\003=\240\333S=\252Z\021\276\206#/\276\031\210\277\276\213j\r=G\247\014\276E\362\226=X\003\245\276\020\372\337=\227\202\222\275g\021\242=(\203\222>\335\365P\277Oc\300\273\374Gl\276k\025\356<\031\010\317=\3603\n\275K\363_=\343\372\212\276\347\262\200=\230\0139=\312\352\235=\275R\212\276\326\274k\275\315\247\251\276u\236\305=M\022\242=\217\350\017>+\222\220;\357\346%>\316E\224=\271\223\217>T%\235>A<\350<I\014\277=\031\'\036\276\200\020\020\276\240S\033\276\237\262G\276\367M\177>\263\022\323\275O\211\305\275\231\024\261>\264*\306<\267\332_=O\260\204>\370tM>\272\356\364=\nk\331<\005\234\272=(\303E\273Tn%=\325A\257=\327\2751\276\212\234\010\276\340\223\004\276\246\334\003>\3229\212=IL\227=_\223B\276j\'\002\276\260\337w\275\021\327h\276\236>\276<u\244\033\276\207\257C=P\344h>B\322\343<\"\346w=\261\263\250\276\337\326\021<(\276\3109\331\226\333\274\223\313j>)s\231=\"l\005\275;\245\316\275\2269\354=\265\331\231\274\345\313`=\275\372N=\364\016\022=X\364E>\265\014\316\275B\3346=#\367O\274\275\022\354>Y:\024\2764\304q>\352\260\021>#\335\211<\024M\265\275\356;\273\274+V\010\276\353\337\371\275\367\037\212\276)\263\335=n|\266\275S\304\343=Idx=\231F\211>\351\324~>\325\327X>\245\246)\276d\302\342={\021\377\273\245\237\222\276\264d\030>d`O\275\277h\010\276\234r\211\276\362MU\276\223\231C=\315\311\305\275\232\362\033>\354\261\200;~\270\272=\276\273\004\276\3044\027\276\365\370I=\367\312(=\235\344\363=p\371\273\275\037D\352<\212\332\313\275VK#=\323\006~\276\244\331E=\207\\\227<\262 \347<\371\034o>\361\251\242=i\244\214>bVM\276\304\371\335\275\247{\335=yS\241\274!\223\320=\321\214\231=%\276\344;s\032\331\275T|d\272n\215\203=\0313)<\344\227$>\317\214\210=\357\354V\276a&\333\275\217\'\202=u\370\240\273\261\206T\275\330\250\005>\363cG\274\274\232d:<d\252=v\231\013\275\266o#=\013\224\037\275`&\213>\033G\035>\320P\244\275\213\362\204\275\320B\335=\032\0059\274\325\315\006\276\021Ed\275\rp\241\274\033\227*=\234\361\327=N\333T\275\213B\362<\220@\t>\233\301I=\274\356\016>f\357$<\202LT\276\300\324V\276\226vk=\333\267j=\364\337\205\276]\343\311=\257\365\267=\257\360+>\237\'\t>\034+4;\221\350z\276\356r><@2\357\275\022\037\221=\233\256\034\276m\031G>\006\220m=\207\331\212\276\372\004>\276\377\341\206\276X\350\037>_\241\207>\n\347[>\274\037\256;\021\250\211\275P\017m\275\330s>\276\243\341D\276\337\2074\276\246\330e\276\372\310\307\275\311@\255\275y\355\267\276i\216\267\275^\007\323=\320\330t=R\002C>yB/=*MQ=\020\367-=\025\016\256\276n\357\225=\375\342\301=\357\r>\276$\024y\274i\211\001\275\327\251\317=\014\321K>=\202!\275[\242D\275n\022I\275\310vD\276\332\306\357\275x\024O\275\003\364\204\276\270\301\202>~J\000\276k\030\250=a\224\350=\367\0346\276\256\335\024;+U#>e\271\255\275:\271\177\275d0\210>E\3769\273\311\177j\276\220\272E>5\213\025\274^7\215<719<\265\3448\276\266\005\373<`M\274\275\267\262M\276\266\377)\276\335\313\201\275\013\204B=Q\037\037\276\r\036+>\205T\325\274\222\357\'\276\2740\253=v{$\276\354Q\254\274S\357D>\375$\346\275t\327\211>T\3319\276\220`\257\270\2475B=\214\370\331<\177f\342<_D;<\360\322H=\321\245Y\276\342\345\002=\374\265\017\274\303B-\276\202\212\217\2767\217o>k\206\024=\244\377\215\275eP\t>\031\013`\276\307vi>~w\262>\263\256\346\273Tz\300=\203P\001>\335\201\037\275\0130\211\276\277\321\004\275\223\301\377<\344Z:;\032\372\270>\263\230,\2760Q0\276\202\3062=\221\326\243\276;\310\236=\31308>\313Q\231=\2461\303>i`U\276\310\324\250<\200\nK<\222\203\227>\335\373\225>\023\272\202>\333\276k\274\2522\010\274\355\220\027\277C\024\270\2757\177\334\275RE\213=!\025\350\274{\026\005>\">\006\276\333!F=\214\006f\276?s\315;\256&\205;\366u\211\275\341k\022\2765\033\212\276u\273\341=q\345\325\275\254\310Q\276\227\202\345<wr\230\275\267\357\215\276\210\313\005>\035\004\327\275w2\\\275\260]S\276?\231\204\275&\002\252=\367\'\353=k\372\227=\371\006\232<\001\364\257\275\236\375\004\276^Gx\275!\361\010=\205\3065\275\355\221\037\276\360\315!>\030\210\345=\323\345\010\275\342\246-\275\031V8=\215\214\005>\362\366=>\003\241G\275\236:\341\275\367\355}=\201\177\'>i\026\347=\031T\210=\266I\263=\214~\234\275,f\t>\224\242\026\276\257]\251=\351\342\344\2741\223\230=\003\273\031>\352O*>\350p\237=\336^\323\273\266\257\364\274\026$\010>\200\256b8\344\362\363\275\332\322\'\274\331w\331=4\253\247\275\276,\247=\362AU\276\275\026\037=\037k\006\276\246\244\367\275\345\007\326\274\220\327\346=\330\251\267\274\336\203\010>h\233N\276j\r\007>\031\220a>9Ew>@\330\233>\277_0>\333Uk\276\331}\246\274\023\241A\276$\304\222>\354\257\347\275y\3308<1M\316=\247\322\034>\204\250\300==rA\275f\247\210=3\365\334>\371\300F>\347k\366\275\277\331\r=\006\357\242<\234G\221<W\322)\273\241\007e\276\215\032+\276\213\234\230\273\306\327\234;\261\264\241\275S\302\254<\261\205$<R\3264\275\332\021\321\275\321\226h\275\370\301\010\276A)\005>\325\330\344<\353\2508>\210\215\256\275S\3512\276\352\251D=:\000\273=\2774F\275\323l\375=7\212\031\276\214\344\253\275P\246\220;u5\267=\">\362<\220.M>\252\240\202<!\270\017\276~M\203\276\321r\301=\304b?\274s\262\247=\231\331\332=\034\251\034\276)7{=m\016%>\2002\302\274%\226G=\257\315m\274\372\313%\274\222V\005\276\265\r0>q\226\236=\222Z\004\276@\242\216>@\255\322\275{\213\333\275A\270d=:\252\223\276`\222\210>)2m\274\274\2065>\226\214J=h\253z>OJ\210\275\232l.>k\254L=3\336\002>*\005)>~FH\275\300\030\372\275\335`\240>\256\320\205\275v0`>\021\311\013>\325\376\257\275\275\227\246\275\336\251\t>\217\211;>\006;\027>\206\005\216=\212\241:\275=\340\002>\355\342\002\276a\227l\275\230\260\215\275~\021\227>0|\217=\307\277\036=\233\010\252=o@&>\257\303\"=\214\036\214>\351.\204=\262\031\272\274tA\370:\263f\341\274\205\236\346\273@\233\230;V\345\264<\234\017+=\373\362\250<-\223\344>ksL\275\353\036\335\275\270\230\206=E\326\313\275.\374U\275A\366\007>\314\376\027\277;\364\002\276\234\376\203\275\315 \277<\371\257*\276\005\t\254>\255:\300\276M\255x\276\355\370\243=\275T\251\276Mj\222\273~\361\t\276\364]]>\207\033\t\275\3351[\276O\225\210\274XT\321\274\n\'\217\2763\231\r\277\226%\020\275N\327m\275\301\336S\274\205b\216=G\312\263\275\235\342\246<\344_X\276\223\305=\276\207X\321=\333U@<5Wy>\016z\206=\264d\263<DK\346\2744B\253=\361\364\003>\3751%>z\336*=\025P\213=\351\276\006\276\013\311[>\314\223\246=\226\347[>\315}\261=\177\241T\275=\023\350>7%\313\276\341\370\347=\334\225M\275(\253\354=6,\'\274hq\r>\006v\224<\362\253\005>j\r,>\263\223 >\2642\376=\224s\206=\000f\340\275\305nd\276\033\031\030\272\014\256\241\275A\223u\275\215\215\017\276\217{\024>\233y\254=\0355a>\342\202\216\276\326\341\020\276N\177\331\274\000!\355\275{\n8;i\265)\276\314\250\364<\304\267\363;:\3046\275\243\014\237=\311<\003\276\276u\232\274\366\365\253<\004:\314\275\007_\020>\207\314\353<\207\335%\276=y\340\275\016$\021>\233\207p\274\272\364\244=\030R7<\225<\006\276(W\314>C\025\257>H\273E\27554\252:\205\245\372\276\370\'\230\275~\371\023\276V6\266\273\337\261\006\276\010L\335\274\033{C\275\365U \274\330O#\276\203\251_>\271\262\022>\374\002h\273\034\355\014=\351\025\000>\007\2030\275e\031v\276\211yK=\201\322\210\275\025U\010<\244\361\231=\342\364\234>\273/8\275Q\301M\274\212u\027\276\257\306\035\276\364\346i\275L\366\034=\370\332\\;\350{\024\275(\343F\274\354v\372:1\243\377<Y\2475\276\222\251\307\275\202\354\r>\231\225\021<J\353\016>f5D=\231\355H<\236\344\252\274\271\027F\276S/\247<\000\323\214;Wj\323=^8\246>\304?\262\275_m\034>\035\205\237\275Sq\232\276\340\201\206>\376\345\026\276\312h\276=~\352\250=\034o\346=\327\225\001\276\276/u>m\016\277<\316\252\025\274i\303=>#d\023=\240\211\025\276\272O\014>\301\t\252<\332\302\027=\354\217\252>$\312\367=\244w\243=+\\A>\\\243Z>&|\230=cr3=\020\305\245\274\226F\327;\370\3538\275=M\006\275\304\231\321=\231S\r>l\372}\275_\374\020\275M\366\345<\023\271\016=\360o\200\274S\002\001>7\244\307\275t\246\216<\343\330\226\274G@\344=\236\362\244=\r|0>t>\313:~EY\275F\034\253\275"
      }
    }
  }
}
node {
  name: "conv_1/feature_map"
  op: "Conv2D"
  input: "conv/logits"
  input: "conv_1/Variable"
  attr {
    key: "T"
    value {
      type: DT_FLOAT
    }
  }
  attr {
    key: "data_format"
    value {
      s: "NHWC"
    }
  }
  attr {
    key: "dilations"
    value {
      list {
        i: 1
        i: 1
        i: 1
        i: 1
      }
    }
  }
  attr {
    key: "padding"
    value {
      s: "VALID"
    }
  }
  attr {
    key: "strides"
    value {
      list {
        i: 1
        i: 1
        i: 1
        i: 1
      }
    }
  }
  attr {
    key: "use_cudnn_on_gpu"
    value {
      b: true
    }
  }
}
node {
  name: "conv_1/bias"
  op: "Const"
  attr {
    key: "dtype"
    value {
      type: DT_FLOAT
    }
  }
  attr {
    key: "value"
    value {
      tensor {
        dtype: DT_FLOAT
        tensor_shape {
          dim {
            size: 32
          }
        }
        tensor_content: "\037Z\006\276DG\003\276\340!\206\276\326;\331\276\264\333{=\017bq\276\030O#\276\207\372G>{1\245\276\224y\307=Zm\356\275f\334\200\274[\253&\2765\206\253\275\001\222\272\276\355\376\326\275w\373\023\276\341\261`\276\257\275\321;\266B\246<\214\234\352;\316\363\373\273\026ca\276E\256\333\274\362z\216\274\0032\361<V\372\276=\005\006\243\276\330\031{\274DL\263\276\005\020\207\276b\013\321\276"
      }
    }
  }
}
node {
  name: "conv_1/logits"
  op: "Add"
  input: "conv_1/feature_map"
  input: "conv_1/bias"
  attr {
    key: "T"
    value {
      type: DT_FLOAT
    }
  }
}
node {
  name: "conv_1/activation"
  op: "Relu"
  input: "conv_1/logits"
  attr {
    key: "T"
    value {
      type: DT_FLOAT
    }
  }
}
node {
  name: "MaxPool"
  op: "MaxPool"
  input: "conv_1/activation"
  attr {
    key: "T"
    value {
      type: DT_FLOAT
    }
  }
  attr {
    key: "data_format"
    value {
      s: "NHWC"
    }
  }
  attr {
    key: "ksize"
    value {
      list {
        i: 1
        i: 2
        i: 2
        i: 1
      }
    }
  }
  attr {
    key: "padding"
    value {
      s: "VALID"
    }
  }
  attr {
    key: "strides"
    value {
      list {
        i: 1
        i: 2
        i: 2
        i: 1
      }
    }
  }
}
node {
  name: "conv_2/Variable"
  op: "Const"
  attr {
    key: "dtype"
    value {
      type: DT_FLOAT
    }
  }
  attr {
    key: "value"
    value {
      tensor {
        dtype: DT_FLOAT
        tensor_shape {
          dim {
            size: 3
          }
          dim {
            size: 3
          }
          dim {
            size: 32
          }
          dim {
            size: 32
          }
        }
        tensor_content: "\266/\303=)\036\300\275.\216\215>\242\222\034<\223j\274>\334\336.>m\007X\276\030N\232>\237W\314=Y\302)\276\243\275\377\275\005\000\240\276#\240-=\\\357\350\275\330\277\031\273\251]\006\275x\027\211\276\324\372G>\026q2\275\334`>\275L\371\021\276\013]P=\310\245\221\275\245\366\242>\036\354\310=*\2657\275\377\3602=\323W\025>\327 \017\275\211\360T\275K\213\"\276@.\326=\\\344\027\276dW?>\324\202\224=\364\201\341=j\'q\276\211\022\032=\005\244V;\341\343\\>\0143\023\275\2337\021\276\220.\376=z\365\200\272\276\317\205\275B\322\261=8;\r>\321%\236\274\\Mc\275\236\210\\\275\320w+>\371r\007\275B\343\026\276`1C\275 \204c\274E\246L>\036\223\211=\004j\206\276[\355\236<e4\371=\004.Z=/\3168>L1\204\274\000\202<>(\020\000>\002\307*\275\311\327G<\242\364\205\275\365-\t>A\336\377\2744\320R\274\215\350(\275\\ \021\273\311\263\241\275\370\215b\275\354\343\024\275U#\006=\235n<\275\247\0178\275\022\321u\275\275\252\031=\322\305\307\274\027\332R=/\002\266<\\\342,=\333\366\234<=\tT\275\251~a\275)\273\251=\256\206\202\272X.X<;\361\217=b\025\313\273c\230\227\275+\360\327=\213j\311=~\236L=o\307\031>\372\344+\276%\033\002\276\005e\311\275\213\366c>\177\377\233\275$ah>\201h\256\276Q3\262\276\253\004\267\274\370~\023=\320Q\371\275\024jf=\027#\367=R\310\000\273\215>E>64\221\273wL\014\276\351\010J\276\327\372\335\275\353m\322;\374\225\336=\305\343\000>\203\005\034<\360\233p=\361\003\234=+\243\200=\274&\260\274\257T5<\0132\024\276\261b\262\274\273g\237>\204\323\033\275|y\032=\216U\025\276\311\"O\2760\027\236=\227\022\365=\300\005\370\275*\267\354\274,#/\274n\'\375\275/U\377\275<\314\244=L\250_\276\254\340\332:\225\016\347=\246\213\353\275\321x\276<8\324\303\275\337}i>]\021A\273.\253\205=^\254\336\275F\307_\275a$\001\276\242\'\234\275\317\345\025>\001\334)>\025\342\350\275\204\370\242=\374\323/>\370\276\030\276c\271\036>M\n0\276\221n\313=\036\346\340<\316\202)>(N\203\276\334c\252=g\334\277=\235\343\354=N/\222>\214J\310\275C\303\024;\3114\032\275\r\337\323=\200\257\357=\234[\023\276\356\210*>\343\3420\275\275Se>=B\004>\004&0=\177\252\345\275O\313\241=\357\231\033=%\367\036<#*\374<\nB\270\275\034\254\333\275\236t\030\276!\247&\276\372h\024\276\026r\274=\377/\r\275&\030\031=\316\323\356\275s\346\\=\362%9\276`\213\207;\377n\027\276\231\177O=\267\237\r\275\324\007\216\275\363Ar=\315\232D\275\2306i\275\207\224G\272\336\003O=\241\222\313=5\006_\275\017\212\223=q\246Y>\206T\324\275%`g<\334\355\331\275c\323J\274[-Y\274*#\006\274\251-\267\274N\326\232<\232\217\250\275\266p\260\274Y\327\210\274\242`\027>s\263\271<!:\250\275\267\353\324<C\365\240=\361\177\303=\244)6>m\365\215\274\234TY=\372\3678>\374\275G\275\002eX=\\;\022=D\036\372<\351$\022\274\366\212\\\275\"sd\275\300\216\r>/\252\220\275\336\317/\276\263Y\034\276\312\262W\274tZ7\2755\362\321<\372\211F\275X\001!=?\217(\274\021\320E>\367]f;N\213\366<I\371\254=\257\224l=tL+=H\217h\274\265\332\036\276=\005y\275\242a\336\275tB\207=\034\257\250=\274\345\222=\246bk\275k\273e<\021\210\257=`\3475\276\320\206\374<\275u\214=\325\332S\276p]\223\275\312\322\211=\026\204\322\275u\020\005>\350\210\337\273t\246.\275\323!\025\274\005$\260=\311\376\273\275\211\332Q\275\335T\371\274\322\256B\275\324\247\334\275\333du<`h\256=\223v\242=\226!I\275\335\216\336;\026\362\305=\246\263\224\274\347\310\013\275\251\364\342\275\342\345\004>\037\374\301\275\374\374N\275\355\212\244=I\337\360\274\215zb>\245\373\373=\030\222\254\275\t\001\000\275\276B\266\275d\260\216<\273\026g=\222<\361\275\"x~\2761\n\317=@\270_\271\203\211(>\n\374\231=w?\021\276\350/h\2757\023\347\274\256\226K>\030\220\346=\231\227Q>\240AC\276\222]\017\276\021\305\273\275\2651\323\275&\3508=\360B\312\2752*\204\274\217\254\021>\233ef\274f\256\322\275\241a\023\2758\002X\274\004=G\275\005\250\257\273G7\376\275se \276%\021\036\276\304~\002>\375\241\307<r\266 >9\211\345<\307,\031\276\004\365\032>>W\326\274Z\300\302\275\314)?>\337\326\017\276\000)\260=\217\361\325=\217\n\236=\222\310\230>2\210*>\026\355*\276\025\201A=\224\244\033\276qH\035\276\367\241e>\300w\267;\253f/\276\311\355\017>aK\353=\314\311\222=\254u\331\274\315\313\265\275\351\026?\274q^\n>~cf>\373\230\313\275\016M,>\322\n\377\275`&W\276\246U\200>\323\272\237=\004g0\276fm\254\274\032\240`>\346w\320=\007\353!\276\263\032\000>\330\205\021=\312P\267\274\354J!\276\206\227\021>\034\264\272\275-\360\237\275A\224\\=\t\334\326=]\300\272=\0332\346\275\013\'\321;\367\2517\276V\010\025>\241\0034>h\016\220=\305\323S<Wt\230=4iW>\234\324\342\275\306n\213\274\333\004\275\275\243\371j= \r\220\275\016\216\346\273q\325\253\275\311_>\276\312G\230\275Mf\217<\001\033\210\2759\016\302\275\"s\217=4]\230\275\301\246\375=\320\231\013>\243\253\274\274\2453\210>\311\225\315<\'\217\220>tA\317=\311\343\372\275\334e,>\025\212o=\220\347\'>\377U\202\276\365\377\227;\323*0=\363s\013=\202\332\273=\002q\221>\010`\266=0\220N=\261\317\210=\031\324T=\316\276\206\276\246\326\222\275\230\326\257\275\016\341\213=\030\372\206\2756\333\2549\271T5=\253i\257\274\354[\273\275I\307\270\275\323\"\203\275;?\005\276\233\265C=\332\216\030=\273\007:\276m\306p\27509!=-\005\025\275a\020\232=\357ig>z\254\324\274\201=\370=\220tp\2748\273A\275\261d\201>%^\'>G\303\207>\372\240G<\357\333O\276q_I=\364\177\r>\243,`=d\332\\>\220]J=]\320H\274\257\233]\274:/ =\3168\204=$=\260=\357\334\032>\320\232@>\206+[=n\372\246=z]\273;\336e/>\220\303\241>\354#\361\275`\222*\276\374\034\253\274\020+\236=i\016\251>\216\202\314\275;q\311\276\213\251\252=\353\224\247\275\027\030\221=\2753\363\275\352t\026>C\315\214\276\262\244#\276UA$\275e\240%=\342l\344=\321\344\375=!e\347=\2262\352=\\\221\027\274puf=\362Z\007>v\360#> \027w\276 \267\356=\316p\340=|\020@\275lVk>\024{\255=\205\023\245\274tX\357\275\0340x>~\302r\276b \277=\320\320\032\276\341\250\270=\265J\237\275B\372\354\274\346\241\212=]\n\014>\374\325\222\275\376\253\311\275_\3551\275\220V\031\276eq!\276<\235{\276s\2137\276\203\347\016>\222\240!;2B\221\274\352~w\275\321\'\241=_1\270\275^\354\261=\340\300\256=D_\267\275\005d\246\275W\224\202=0a\347\273\247\3467\276]Eu>\315\367\002\276u\253\325\274\245L\350\2756\251E\2769\211b\276\227\270)>@k\332=\374\314\007\276\373\215\322<k\026\247=\377\014\373\275\0252\230=\006N\252=}\037\373= >\277=\031\3106\275\372\321\340\274L+\237<S\330\003>\240\267r\275\354\001\271\275\000\213\010\275\344\r\001\276?\333I<\273\014Z\276b?\257=(V\270<\257\336\304\274\310Q\216=\324K-\275\250\263\326\274\351.\275\275U[\272=\373\344\005<\275\006u<\3025\370\275,d9>25\262=\237\217\007\275\273\2661\2766\370\000>\230\300|=GF\317\274pK\221=3E\302\275\264\334\347=\002\r\232\275\n\274\325<\034\217:\275\367-\340\275\336\336%>\200)\337\275\347q\005=L$\273<\330\370\251<\245#\274=\306\361B\275\033El>\t\253a\276\203\033\323\275@Pj\274\202\250J=\232\355K\275YL\326=\271\330X=\365$Q>\221R~\276\r!a=5\267\347\275\215\274\253:y{->f\347\217=A\r*\275\260V\261=D\027\212\275\202\342D;\2153\362=\013w5<IH\225\276\201\251b\275\360HK>R\206\037\276S\"T\276&\336\272;\222M%>-\260X\275\253\245;>L>~=L\310\343=R)1\275%\242^<\036\027I=\320Y,\276\271\017\304=\2116D<\373\362\004>71?>v\036\013=9\205f>\342\225T=%O\022\275\230\n\367=\334{?\276eTP>\236\325\026\276|9\177=\025M\204\275\373\243\345:\304/\264\274\342\254\243\275\344g\255\275\212\277\'>\237n\336=\316\323\216=\330\323\203\274b\034\230=\341\222`\276pI\002=\2247\216\274\327\020\345\275\304\201\016\276\030$\210\276\030,\363\275\373sM=\036l\320=-\316v\273\236\314;=\361\327v=3S\003=4L\027\275\342\"\006>\363b\320\275\251\3110>\207\304\177\275\244W\031>q\374\322\275\354y&=\221 \031>\2368c\273\256\023\031<M\354\247\275\327\014\216\276\312\310\377\275p+\275\274\354/$>Th\223<1\336\225=\241\335\023\275\006v\002\276r\024\014=\000\237\251=\306Y\214=%;\247=\3206\004\276h\024\236\275\216\324l=9@x=\242\327[\2747o\230\275\245G&=*/i>`\256\210\275\240\013\017=\314\020\225=\347WR>\271\346f=\021;\210<{(\307\275\306\252f\273\226E\034>\374\t\236\273\263&\313>\251\314\214=\030\221S=}rI=H\341\340=\270\233\342=[\3106=[\244\305\275\244U.\276\340\274u=t\263\240\2757\"%=\250\3567=\351\200\353=\257\366p\276\0325U\276FD\303\275j8\263<\336n\026\276T&\t\276\216\271\251=\214\223\'>\365!\210\276\027<\037>\245\265+=\253\216\222>\317\207\232<\212Q\301\2735\200f\276\200\345\205\274`w\333\273wd\207>I|\304\275\0261\t>\223D\334=8+&=\345\231\032\276\230\207m>\324\321\373\273Z$\226\2762n\035>d\t7\275\026\253\232=Wn\262=v\354\352\274b\307\013>9\361b=\337\214c=\260\240e\275\275\355,\274\330\006\205>\347\n\253\272T8\226=I\275\032=\'\255\034=\232\310$>d\236\016>OI\016<\310\255\261\275\365\331\231\275q\n\001\276!\004Z\275)\2264\276Y\361\320\274\244.\233\276\340\"\236\274\231?\267\275_^\254\275\343\317m\275`\005\025>0\014\322=\200iY\275\'\351&>\"\3535=\3122;=\325\342~\276n\032|<\252\027\274\275\344\205\342=PIj\275-V\325=x:\212<\261\241\206=\316EM>\214\220^\273\374HU=X[\235\273\204\365\010>\3246<\276\013R\203\275Y\304\303=*Q\014>LS >\303#\231=\024\377K=\217\202\010\276\244\374\226\276\242\303g;e\305\265\275W:\215\274\372\205\340=\037\220\022>XD\347\275\266\356\026=\212\311\260=\210t\2779}\335M;<\336\'=\210J\020>\375\336}\275\017o\211\275\247g\354=\2434|=N\004\004\276\2524`\2754!\253<\256U\312\275Zw\213<Ea\352\274 Q\302=\367\275\263=\202\261\t>\027\227\325\275@TL\275\364\334\215>\302\200\016\275),\207\275-\025O\276,\235\211>e\313\026>\265\034\277=\210\330D\275\253~n=\210*\243\275\2769\276=\352\231w>\200\364d\275\332e\307\273\337\333\353=\330\327\373<\326Y\321=R\177\377\273\3306\013=\274\272\204;K\"@<\370\241\362\274\302\206)=\333>\211=\354A-=\027Wv=\343/3<\262R\343=r\305H\276\347|d\276+\367\245\274\236\2161\273\356\354\335=\221\264\214=\004q(\276:\314w>\203\314\305;\"\252\030\275\212tn\275\307\212e;I\255=;\3339\303\275J\320i\275h\264&<r\205\000\276\254\323\t>\006B\t\276H\322$>\377\315\367<U\274?\276V\227\305=Q\000\002<\214\022\260;\316\322\013\275\342@\226=\232\250\027\276\306\231\201<a\377y>G\356\177\275y\005\025\275\333\366\021\275k\271\232\275_5\243=\3309[=P#\274=\010\341\303\274b\204&>|P\027>\237\324\361<\2276\240\275\"\242\037\276\303\376\001\275!X\252=X\212\"\276e\362\330\273d\031\241=\363r9=\336*\224\275V\363.\275\241<\021\276\rqR=\215\036E=\204\341\232=Zd\325\274.\204\364=\232b\357=\236n\226\274\252\316\331=\231\370\350=f\026\277\274\337\026\002\276 m\304\275\27567<\016`\362\273\323\034\003=\317\233\212\273Xn>>f&T\276au\331>\034\035\017\275A\210R\276\030.\000\276\345=\006>\002\236\235=?\032\301<\212\n\324=\354\366\033\275F\245\271:\306J\026\275q\253\246\275\203>\241=\237\213\003>E\212\021\276\027\224\346\275\265\033\263>\311\254{\276\332c!\275\371\231d=\251\325\237=!,`=Y\322#>\304lp\275\023I\026=#\227%=\254\247\355=p\020\203<\3763\036\276\221|3=\007\017\235=\256L\246\275}\367\266\273=v\355=\321L3\275\333\300\263=\243\360>\275N.\251=c\263\351<>\344\300=&1\005\275\206\350\326\273\350z\364=X\000U=\367\224\342=\311\037\361=\004\232,\276\350F\333=3%&>\361w\261=_T\261\274\177\262H\275\266\200\037\276\0269\004\276F\016\002>\250\376Z<\027@e\275y\373\240\275\357C!<\244\313\251\276\237\311\201>j\325?=\253&z\275v\214\027\275\004w\312\275Rq\352\275\340F\234>\327\322 \276\362R\213\275AN\022\276]\245\021\276\214\310\312\275\004B>\276\200\007\263=V\371_\273.\032s\275\353\255)>\330\026\303\275\304\356\232<_z\224>\232\327\033\276\312\335\202\274?\370D=^&+\274\215\025I\276\222[m=.x\'\276\333h\244=E~\304\275\342\252W<Z\213\352\274\202\024\037>\031 *>\210\335\212<\306\364\351<\321_\223\275\254v\263<l\016\207\275n\276|>\271\010\255<\373\226\222>s\034S>X\274\001\276\361Rf>\344_\025>\206\270T\276T\303\227\275\221d\\\276\3220\017\275:e0\276\\n`\275\317a>\275;\205\204\276`C(=\236\233\023\276\342D2\275\3121\255\275~YC\275\n*F\276z\236I>f\033\331=\325\326\227\275\250W@\274\0100`=\324\376\007\276\312\362)\275\022\027\023\276\314\250[>\310\242\274\275\330\234O>\366\014\251=y\013)\275b\0304=\360\263(=\335A\200=\374F\225>cG\325\275$v\200\274f\347\246=\356\020W=\232U\263=\243\315\212=g\241$\272\002d\006\275\324\r\021\276\025<\232\274g\351\325;C\307\242\274\371PB=\016\300\334\275_\372\271\275\222e\034>\212\033a>\267h\026\276y\2734\275\320\277U=:\264B\274X\352\030<\tr1\276(\333\214>\230\347\352=\356\241\211<\326\370_<\240j\262=\211`@=S]N=\243\"F<\323W\215\275\352H\007<xW\323\275\224\212.\275\r\3371\275v\331\317\274 \025\323<\332\364?<\026\276\205\275>\376\t=\036\233\261\274#8\001=\224\367Z=\3419\000\273K\225\236\273\212\211\262\274\016\201m=\230\3302=\177\302\200\275\034Ab\2758\303\025<=%\227;\020jn<e\306\227=\313\244K<f\2773>\321\227\322\274~4\003\276\214~`;/s\031>}\340;>\213\217&\276\312\375[>\014\035z\276\225\261\242\276\250\227\">\317\216\221=\202\252`\275$DR\275\226F*=\373?6<v\336\310\273O+\201<q\033\023\276\231\323\006\276\212\r5\275\004\261\201\275\320\326\317=\211\303\250=\360\320\n\276\361\223\245=\003N\334\275\r\310Q\274\301Q(:\216\365\234\275\034\2208<=\200R\275\274\002\351>\363\371\316\273\3246\305\274\005y\217\275\253\014r\276\331\314\220=p\362\224=\214\304m\276\257\350&\275\210\365\242=\354$\215<\177\202\230\275Z\205\023=\017L\202\276Q3\221=h\036M=Nj\340;\346\274\234<\221=i\274\370r*>\037\247{\272J\376!>\346\203\223\275,\027C\274\022\261\374\275\242o\010\276\365g\230=\260\312$>#\003\233\275c\350\240=B\204t>\373\263>\274tvJ>ER\022\276\245\001s\276u6p\275<1\224\274\267X\257\275\221\372%>b\205\204>\360i\275<\366[\361=b\341W\275\260gw=Z&=\273\324b\363=\323(\323;q\316P\275\210?x=\352\260\206\275\006\242>>\001\251B\275\314\205\345\273\233\342\374\2751\273(>\002\034W<F\201;>\375\353]\276\322d0>\216\010c\275\344\211\330\274\330\342?\275w\333`<\320\031\204=tEd=\030C =z\003\336\275\030\0319=\213\336M\276\345\331F\275D{\177=SeG=@\244O\274|\330\350=\025\247\206=h\352\310\274\033#\255\275P%\001>\006Y\254\2742u\206=y\244\032\274l\225\361\273@\354:>\360\263S\276k\374\326\275\345\035\"\2766\206G<\333Y\303\275q\243\230\275\2736\007\275\370\t\312=\263\245\002\276\252\375j<\340\202\t\276-\200E=\007\254\224\275\213\200X\276C\336m\2752\246\376<b \037\275\210\227\222=\244x\265=\014\347\214\274\321\260E\275\\{\204=\360\332\234\275\225\342\335\275(\321\030<\354\r\352:F\235\257\275\2464\223\275\t9\310=\031\222x\276\005p\323\275T%\325\275JK\275\275\2520A=\237\341\t=\022\016\235\274O\017V\275H\322B\274%X\304=bY\270\274\263\373\252=\220\336\374=\250\'v>\262\243\277\275~\221;=\302wM;\347QL\275\r<1\276\032\201X>\252\2735=M\032\340\275\206\016\241\275\252\214\275=\335\233\203=7\355\217\274\3222\372=X,I=\233\321\030\276\303\343==`@\357\274\217\244\242\275\365\234\203\275>\330P>8(\317<\006D\013\274\327\247\205=\264\356\361\275~W:\275\005a{=&\341\316=g\265\234<\204`\001\276D\344\032>8\272C<H\365 =P\320\006=\266\376\246=\2348\324;r\251\006\276\323\346\352\275\024\223G>\030\034\n\276@$\323\274\203\253 >\202\3113>\330\253A>\342\342\322=BSY\275o\352\010\274O\237#\276\260\024\005\275\345,\312<\334-\177\275\341W\301\275\\\314N=\352\021\032\274\261\014&=iS\263\275t\212\n\276\0163\031\276Q\336\001\275v\335\223\2743\036$\276\344<\353=6\364\357\274\364\241\022\276\267\'\021\276\212U\353;r6\303\275\320\316B\275\234a\376<[#\333<\345\034\016=\302\0017=\273`\026\275\323x>\273Y\241\017>\373\225\313\275\230\005\n\276C:o=\312\322\333\275\310\032\035=e\251\256=\177#\254=\"\231\346\275\361\355\023\276\030\357\005>\372\333\002\275\240S\272\275?\307\231=\202s\343\275\211n\253\275\270U\025\273\322\242\313\275\310\370\004=?Q\034<\2156\023<\333\226)\274\224\203S\276I4\336\2755a\364=\330M\333<$w\234\275x\001\245\275\177=\305<B%\257<\365\302\251\273\317b-\276\020\322\373<m\020!=:nA= \313(\275Hsd>\321\313#\276\032L\034\275\274]\001>W\343S=\016i\250\275\262^\305;\014C\030>:\021\304=v\223\311\273\030y\211=\370W\370<\006Z\001\275|C\343\274\200\331\300\274\304C\317\274\364\357\177=]5s=\360\332\344=6<f\273fL;\276\213\014\364\275\371`\030>w\266\327=\374\273\242<Q\222y>\317\007\222=\177\201S=\237H\005>\303\022\350\274ch\225\274\204\022\211\275\010F\022>.\220)\275\350l->I\021\203\273\314\344c\275A>\316=\322h\230=\243\262\010\276\237S\016\276MF\372;\206t\033<l\255H>\032y\253=\177\275\376\275\304\003\210=\224\206\345\275\230]m>\025T\216=\354_Z\276U\246\222=K}\245::\350{=\227z\223\276\241\252\274\276~HO\275\343r\236=j\312\260=\3123\225>v\266\237=\236\240\230;|zJ=ez\244=\211w\347\275\305\350\250=\333\330\021<\353\3752>\n\014\037\276!m\001>q,\034>\335\217\005\276OhE=d2\212\274\331\324\321=G\2750\276)\233 >\317C\216>]\000\034\2767y\204;4\317\343\273\257l\273\275\214\220\260=\322\004\322<p\202\'<k\224\256\274\226\202!\276\332\353\235\275\264\323&>\301\210\024>x\037\233\275d\340\016>\352m\344\275\2107\016\276d\270\311=`\014\277<%H\251=\177\270\033>\244J\002>\205:\371\275=\347a>\273n~<\023P\311<\223\334\035>T\254_\2749\207\254;%4\240\275>\'\317=\256>\322=w-L>\2147\024<\t\2466\276\211\225\010>\213\253\372\273\266I\030>\347\226A\276\211\230\307\276&\014\210=k\2346\275\222\314\023>h.<\276\254\271f=\274\210\343\275R\026\371\2750\263\207\272\241y\\=\3413\372=\306\342\255<I\341a=\201\336\245\275Ki\222\273\333\250\350;\237\271\254=\331y\264=\367\216+\276`B\320=/\347A=6\303\304=\264z\347\274-\270\005>X\243C\276jX-\276\261\364\345=u\231\224\274btE=o|\227<\355\357\202\275\234\221\\\275\005\201\'>B\tA>m\265\013>\255\341\222\275\2755,=t\343~\275\215\205g=@t\322\275y;-\276@\251\006\276\270\022\321=\272{\031=\220c\227\275Bed=\031\220T\275<\314\034\276\205\217\324=k\251\025\272[\203\267\274cr\302=\315\372\335=V\344\237=\307\273\356\274\317\317)>~\364\001\276x\324\341\273\331m\254\2751\215K\2764\351\245\276z\330\221>\275\351,>\271\372Y\276>.(=\203\261\023=q\353\244\275\366#\376\274t(0\275\234\037\013>F\3024<\317J\256\275.\334\236\274M\227\"\275\036d}=\270p\311\275\n\213\300\275}C\205\276\370da\275;\306\311<Mc\254\275O\020\216=\211\014\371\275M\265a\275\237\274\016>D\356g\275\3517\317=9\307\033=\237Y\264\273\224\313%=\223\307\002\276L\307\222\275\245\356n=\022\377%>\272\177p\275\247G\214\275d\307L\275\t>\357=\331T\377\275\361\010C\276\370j\322\270\265\236\333=.\"\020\276(\346\375\274Y\225\221\273\352\353V\276\316\275\022>\344<\241\275,\256\251<\257\306\021=\272;p=\357\305\'>\363\355\362\275P+\204>sI\002\276&\2672\2760\331\307<4\352\240;\016\351\232=cq\216\273\360\261\336=`\304\200>\223)\"\274\204\203\337=\274\332\273<R\3256\275\247\216i>\247d\204<\346\231-\275\305\2724>\306MG\276$\227\340\275D$9=\333?\016=\217\356F\276\365\245\r>\204\021U>\022\003E\276\206\341\301\275\204sI=\350:Q>\254\016\017\275!\240)>zU\t\273\251\202R>&\202\257=\335\360\034=2x\370<\210\376O\276:\313D\275o\251J=cYS>1\350\035\274=\207\020=\251\371U>~\2130=\206=P\276\031Eo>`\240\307\275a\362\331<#\017\001\276\010\371m=e7\343=^\373s\275\014\365>\274\010\032\254\275)]+\276|\035Q=\200~\207=\250\032\303=\001\317\233\275.\254\273\275\201\253\327\275\251i)>\220X\'\274`5Z\276-\237\007\276R\0360\276\301\220\330\275\037\212\326=9\216]<X\203\003>\322\366\007\276\001\364\377=X\232Z=\"\233\233\275f\265\336=\346*\217=\213_\233=\211.\270\275D\314\003=\305\315\241\275\345\363\'<8\036\013=+\326\373\274j\352\263\2750-\337\275w\216H\276\344h\200<\206\224\262=\245\215\200=\357n\026>\277\346\233\274|\r\325\275\207D\355\275\371r\313\275\323\307)=\250\301\330\274@S\254<\033\330+\275\026\232j\276\205y\214=\034\221\336\275\010zl=\367\231\373<\354\377$=D\357p>\200&\241\275{[\005>P\301G<\213tZ>\325\246\325\274\261V\000=\302\345\036\2765\307\'\275\364QZ>\305\004.\2758o\276>\002\264\312\274l\010\270\275\016J\367\2756DO\275\245s\215<L}\345=1\213x\276 \272c\276\027\301\240=\266\322l\276\270\264\">]\024\346\274\254I=>\023z<\275?\323\345\275@N\334\275\254\016C\276\331kV\275\230|\250\275\222\216\245;:5<>\233\010V\276l\0308=kW\266<\262Z\004>\204\3703\274\321\332\006\276\224\360I\276\352R\351=Z\273 >(;\375=\3679\270=\'\316{=\336y\241\274\021e\005>\005(B\275\200K\003>k@\016=\255.Z\276\366?\263=-J\001\275E\331\354=\311h\010<\026\301\374=d\362\347=zjR<ZTZ\275\324\207\302=x\233\356\275\246\205N>\3465,\276\222\207w=\271\004\342<tR\327\275k\006\205>\366D\206\274z\227\231=\t\371\007\275\032\215\037\276\2653\313\275b\226\204\275<\271\300\276\321\242M\274/\267t\276fRN\273\002f\204<\324\260\254\275\013\n <\212\310\010\275\253\332\354=\233\351\226\275\213,\301=r\227:\276\024b\000<b(\205\275\021\266\272\275\341\231~\275\236s\205\272\202\343\221\274\035\274\217\275\372<\035=V\344$\274\235\216\373=+t\214<\322\003\310<\267\022\367<\243=\r>C\201u\276\345\222\371<|\264\035>\342\372o>\315\254\265\275\365\341\246=F\215\243\274\317Iw\275:\005\277\275\265xn;I\343\360=\344@w=\240_2>{\205\303=\004\t\310\275\030@2;\272\270h=\242\n\250\274\372\021\200\275y\355\375=F\312S\2751*\031=\302\230\355<\227OQ=\242\t\256\274\226\362\206\275?*\302\275I\325\217<l\212\312\2754\374\';fVW=\335[\235\275\373\020\200=\220\250\252=\026\"\343\274\303+Y\274\211\020L>\336\342\211=\322\336>=\364\345*\276\207\177\005>\322\204\212\275\213\'\207=\351\000\260=e\201\232=@\326\346=e\212?\275\275\253_>qM\336\275k\230\203=\312\031\260= \255\020>\242\323\250;U|J\276\305\340\312=9\276\000\2756\230\204<\303\330<\275q\366D=\370\240\311<\332qZ\274w\320u\275\232\013\302\275\2470\247\273\250a(<\244\361\r\276v)N>\235]\021\275.\033\361=\245y\233\275\254\3461\276\236X$>\320\250\014\275\304?\266=\326\263\254\275\335#\222=\202\\\312\275\230\213v\275)P\257\275\210\304}=,\202\362\274\341\022|=\332\203\337\275\260\324\022>M\317\023=g\315\344\274\222\264\344<%Hu\275\343\224\346<\373D\003=0\232\'=P\205\342\275b8\005=9\345 >\007\352\256\274\273\213n=GK\337\275\271\310H=\212\214\355<[\235\036=0<%\276\352M\002\276\324>\252\274\224\324\031>\221$\353\275\334\020I\275\322\033\200\2765\005\300\275\226\267!\276^\264\243\276\345\356:\2757\217\\>\016\255@\276O\350\307=u\035\226\274$^\220\275v\236\213\274\263\272c\275\201\007\037>\334\277\005>\246\017\371=(\274\007>\3571\023\275\363\307\201>\231\367\037>m)\332\275\235\215\244\275\351\"\363\275\261\211l=\357\014\264\275k\354\202\275\315)\324\275\352\003\275=\220\2131\276\316\253\202>\316\020\006\275\225qZ\2765\364\315=\'\355b>\247k3\275\336\354\300;5\226\265=\255\203\232==\370H=\346W\014<\342$\037\276d\321\251\274\254E\357=\322\311<\276\351\003*\276\210>0>\275\003\237\275B\262\321<jA\201=\"yW\274\001X%\275\336\3644>\275}\n\275\344%\333= O\216\275q(\r<\333\375\030= \342X\275k<\270\275V\266*<\001\010\254=\312v\000\275\325\321\225=\334\325\242\275\366Xl\274\340\232\373\275|\007E>\342d\352<sm;\276\257n\230\274[\217\233\273\nK\237=h\241.:\223c!>\256\344R=\356\322)\276X\026\266\275\352\266\005>\301\271\353=\352\216\246\275Hu\327;\344\2673\276h\'\221\276=W\253=J\253\374\275\256\231\245\274z\177\235\275\236\004\000=/\367\206\276^\032\213=\214\264X=\372i\205\275>G6>\010\260@\275EK\036\275\177\251\223>hz\000\276(\346\035\275Tb\236\272H\306\233<<x\210\275\313{s\275\026F\r>\2571\270;\223I\234=b\3721>\036\301\315\275\316w)<m\324N>\220c\203\275\234\264\311<*\313r=\001\323\333\274]\231s\275\321\0069>\353\345\205\275\225Z\003>C[\017\276\261\014\002>\t\377@\276\303!\004>z\314\000>\265>\020>\177\335\201\275DKS\276\210]r>\230\317\347\275\016\235c>dG\333\275X\225\307=C\311{=W\037\277=PlI>E\223\325:\303\017j\276<\261\350\275W\023M\274[\014%=\275\214\372\275\225p.\2757\210\374\275\031>\203\276m\276\334=\333\352\317\275\230\230\020=y\260\353\275\360\263\000=\014\266\375\275\322O\035>{\261x>\276\322\\\275\255\247\264=\"\000M\275<\273S\276\342\264z\275*U\013<$\270k>b%\023\276e\207\016>b\264\t=\003FV\275\003\255J\275Rd{\276\371\204{=\0235\246>R\007)=\036@i=j\\w=\n\037\005\275o\334F>\314-\223>j\330\375=)\234\263\275\346\001\035\276\3372\032=R\346 >$!\313;\223\352\365=\324A\265\275\377\326U>9\211C=\334q\235\274_\007J<\007\022\327=\035$\263\275\002\303~\275\202\264\225\275\304\337\004\276[\324Z=5^\211\275o_\"\275p\324\022=O\002\'=\260\334.<\322\250\301\275_\034\207=\332T\371\274\216\357\027;\253\243\331\275?\006\225=Zux<\302\264\330=\023\307\036\275Md\243=d\305\010\2711\323\362=\214<\n\274]T\363\274f\361\221\275\360\335\316<~\000u\275\240:\273=\035\213\312<\370bA=!\005h\273\024d\207<\263\2535=\326\246\341<\311J\337<l\334}\274\257{\223=\363$t=\035F\342=U\265`\275\251\336;;]\3063>Y\326\\=_\354_\276\311\n1>\362\250\231\275bP\r\276\311\237\301=\2561\310\274\306\310\000\275\273\251\327=I\326|>\364t\260\275a\035\n>\340tO\275\014\331\242\274\357\306\330\275\363{\255=|\231\371\275\304O\214=a\022\237<m|2\276\324\342\'\275n\304\201\275\370\255\253\275\212\375\237=\"\367\271<\212h\200\275\2772=<\n,\311>(\262W\274\035f%\276\267\203\022\276\3354L\276\3534\025>Oq\022>*\336L\276\2355\006\276ra\311=\337\231\244=e@\224\275\0361\350=O\276\215\275\225.\014\275\235\0204=b\334\n\274\236*\350\275\247\337e\275^\357]>a\200\316=\211\246\360=\021\257\234\274\251w\241=\'\246\365\275\016\214F\276\017(*>\306\250\307=\016\314\014\276\014\227\007>T\3536>\375\300\277\275\374h\203>\334\243\231=\360\253l\276\031\260%=\323\2502>o#\264\275~3\354=\321\252E>\031\342\277\275g\330\263=_\020\214\274\3109\342\275R\357\352\275\203$\036>0\374\246\275\362X?\276u\\\226=\324S+>\232\311,=0m\022\275^\332\333=-\325\037\276\377\201\357=\366\206q>\211=\000>n\022t\276\024sZ=n\234\264\275}\350\253\275\017\256%\275\204\302\311=8\223\364\273&x\025=\234+\201\273\363\242\010\276\322Z5=\260\224F\276~[\'=O\255`>1f^=\245\254\241=\343\366\010>\332\335@>1{\t\275Y\304\221\275j\374+>\227v\200=\230v\271<\315\354\245<\010>.>\005[@>\310\224\220\275\302\330\372<E\325\000\275\352_\006\274\356\256\020\276\3449\251\275\006\014\271\274|\334\206>.\024\245\275\024\361\031\274hC\256<\334\304\307\275~Y$\276\254uQ\276.=\212\274\272\3307=\0136o\275twu\273\204\000\321=\350\014L=\312\027\'\276\310\312\330<{\225(\276\261\275\320\275\322\367!\275\302D%<\244j{\275/sl\275\241\316~>\306t\217\276\030\177\035\276B\377\346\275i;\234=\253\362\241\275\024=J=z<b\276DDn\275\266l^<},\366=\242\032\034\274\'\025R=\263\353\206\2735N*>i\307m\274\274_\357=\301\267]\275\234\313\247\273V\246/\276HU\004>f]\202\272\302a\331=;\244\310\275re\037=<\344\355;\344:\t\274\023\304\361<i\321\022=\376;;\276\300\361\277\275D)\020\276\236\007\260\275\315)\222\273\257An\275\'\3535\276\031\035t\275U\376\321=\262\"\320\274\243P\204<\237\233\223\275\005\241\203=\227\016\256\2739\305\210=BU\270=\'+\265<;e\202=\371W\254\275\002\246\207\275xD\n>t\245\034\275)U/\276\335\231\375=\034\276\216\274\217:?=\256\322\314=\200\253\377<\t\336\220<\030_\024=\211;`\275&\274?\275\370\226E\276\030Q\030<)\204\253\275\343-(\276\214f\343\275\210\321z=\017q\035=+\337\216=l\270\224\275\215 Y\275\373\225\315\275\022\360\017\276\224V \275VOA\276\361\265\206=X\246n\275\372\365\001\276!<\276\275\374_\024\276{\312\276<^\026\374<\020\177,>b\305\243;\002m#>\0037\301=\226\016\204\275q\"\201<\234Q\262\274\202K\200\2740\r\315\275\354s\005\274?C3\276\333\225D>\274\341)>\230\325\004;\317,\t\276\232:(\275\326\001\367=C\324\245=\2657\023\276<~\307=\226\330\\<B_\'\275\246\310\301\275\021\335\233\275\352\330\212\275H\002\372\275\221a\315\275\211\002\240\275\333\200\023\2769\255\252\275\321\243\213=\312\275\216\275\362\347D\275\323\333\322=\002\266\263\275\344n]<C\372\010;\177\315\032\276\324\301&=\220\325\272\275j\037]=:\013\353\275\223D\335=)\304k\276k\003;\275\232\205\344=\263\203\230=\363p\020\275H\027Q\276d\300\026>\212\234\226< w\225\275\326\253\252\275\334\374\356<z]\316\273 \345\205\275\334\215\002\276\307\263\227\276W]\354=\3602\014=\013\315#>F\221}=\210\256p\276\0163\032\276\010\232\243\275\202\266*>Dw\022\275\274\325\335=y,$\276\206\242U>42u=\271\364\362=\353AK\273\247\235%\275`\300E>\023\254\210\2763\340\252>\n\024\327;\\\372\320\274\273\r\017\276n\220\234<CHN=\026.\211\276[N\334\275S\336\353<[\253\276\273\017\017{=\27268\275\323\353\220>\230\377\207\275\246\325u>\007\204%\276R\022*\276\026\3657>\006\017\237\275!`3<l\273\004\276l\340\210\276\240ap;t\2712>\035\333\215=@\246\211>t\314K=\215\262K\274\202am=\332(\336=\343\243c\275\347\370\026=\376k\"\275\235Ix\275\022\337S\276\013+\027>\322\246\275=\222\025\210<\273\013\214\273\004IT\276\264wq<\2062I\276t\244\246=\300\215\221>\334~\034\276\215\207\300={\004\033=\337\332Y\274\303\307\206=@(\r>n\235\203=n\217L>\321\273\016\276\263\027\320\275c0M=W\001c>\372\307\021\276]\253E=\260Vw\275#\020\237\275UL\007>\352\004_\275M\267h=\206\304:=\274^{=\316 \207\276\252\245z>\216L\230=\031\2119\275\376\347N>l\230V>#\372 >\022\376n\274\022d\000>\006j_=\342\305\033>\242l\230=\316\340\203\276\035V\321=\313n\220=\302\222O>\256O\367\275\333\211\307\2765\270\202=jr\361=\"\224\">\021bT\276\000\261\360\274\334\355\365\275\334\004\217\276\270\\\311\275&\323B\275\001\021F\275.F\217<\037[\313=>\317&=\310\365\250<\223\315\377\274#\3052>\365\0269\273\221\226\343\275\251qI>+\223\305=\233\337\032><\212D>L\332T=\003\216\355\275V\177\356\274\353\035\216=c\022A<\342x\262=ie\357=\201\233+=G>\376=\205h\311\275:\007T>\312\300L=\300^N=2\007\021\274\204\004\226\275\032\277\006\276\021\021\301=ng4\276\362\004K\276F\374\264=\222\255\006>\256\320\036=\t9\014>2\025\214<6\205\241\275\260\264\247=\371\255\361<\0278\301<\210%\321=\323}2=\237\243\373\275\327\177\205\275\265\035P=\207\345\374\275\263(\216=\013\035\323\275PH1\276DX\032\276\005Z\363=\375\003$=x\262\311\272\341\265:<yE\000>k|\241\275I6>\275\377\367\034<ts\002=\014\021O=\240\237\336;\004DG\276N\232\'\276\205\037\227=\312W\020\276\r\343\244\275\343\037_\276\367\215\311=#\365{=\357\362\027\276\345\317\n\274V\360\210<#\3778=\346pc>\362\t\337=?_,<;T\267\275U\276w\275\004\337\202>9{G\276\321X\332\274pv\373\275\241\352\205>\344\377\336\275|e\325\274\3670\312<\320\332Z\2744\232\374\274\227\317\365\275;\001\343=\312\211\017>\031\240@=}\271\241;\342$I\275\"\326\277\275\022\222\226=\301\241\375\272\316\326\r\274\330\346\001>\264\020\242\275\316u\330=\363 \246\276ii\342=<\034\037\276\300T\020\276R\266\'\275?\036L=\317\200\014>\365eD=\255!\004>\245\244[>+}\032>29\235=\367U)\276BL\205:\337\326T>\026\275\215\275E\346\t\276\177\002c=<\252.\276i\360q>\024\335\356=U\006\242=\337\241\272\276\035\020\010>\207-:>8\362O\275\276v\270\275\215^\261<\236\313@>\364F\342\275]%1>\237 \257=\346\034[>\215\276z\274\243\271\371<\275\\Q\275\214\332\341\275vXF=<\1770>\354\226\202=}\303\301\275v\365\240=\215W\306=\257.l=\363y\300\273\264\375p>\325~\014<u\322H\274!\210\206=%X\024\276\262Nr\275\227\252\035\275D\2036\275|~>\2762\177P\276\215\034\206=h.^>R\217\014>\214U\332\275\260:\303<\017\345(\276+\351\301\275\207\202k=U\003\300\274\"L\330\275\034C\024\275\222\203*\276e\356\203>\316\374\250<\312-z>\035h\036;\004\0017=\303\320\275\275\005)\031\276\320\031\200>\231\324\350=\315G<>G\224\360\275\376\370\356=U\342\365\275\242\303\214\275a\201\r\276\025\207\021\276DB\010\276\237\310\n\276i<2\276.\022\217\275,\242\321=^\245\303<1\306\255=\225\247u\275\214\344\306=\221.t\276q\202\024\276)\272\006=M3\210\276\006\020\244=\034\350\021\276\326P\207\276w\2421\275w^\023>r4\026<\006Rb>YOu=q\251!>\336\331\347\275>\205b>\315\241<=\354\325\216>YP\203\275\3428!>>\360\235\275D\360X\276\250X\210>b\221\377=\315\357\244>[\255\014>\273\017\207\275\262\232\224<\223\335G\2753I9\274,\365\351=H;l\276\342\036`\276y\374\031\275bO\032\276\005\371\255=\322|\006\276\001\202W\275m\3209<\204\344^\275\216\275\245;\025W\361\275@)K\274\273\250%\276f\332\260=\376,\225>\344!\024\276\373\035\232<V8\243\275\322iI\274\016\021R=`\276\222\27583\227\276\257\2047\275\021\251\203>\335\356Z=\213\310H>\227g\340<J7\233\275\023Po=l1>\276(53=\260z\201<\177\r\r\276o\250\364<\333\374\027\276.^\002>3\200\013>\224\3459>\273,\344=\220s\013\273i\261\304\275S8\016=\333\375\370\27561\177>\200\267\020\276\271\304\211=\3702L\275\210\323\027\276\022\376 >\004.r=\003\346\026=\"\023\332\275\204<\246\275\016\313*=\247\250\331\274\014\375\333\276\374\006\033\275\355\0045\276\356\310\023\276j\027\277\275.\217\347\2758\363\010=`~\311\274\234\241c>\n\356\332\275f\250H=\267\0030<\034&%\275\324\001\034\276\217\311m\275T\376\274=p3>=<\244\355\275J2\244=$p\201\275\266Z\316=m\003\301=\215\007i\275/\n]\276\256+m<^\340=>\213\217-\276\217\006\024\275+I\214=\023\373O>&\033-=\364\352H\272\304\242\262=\310\376>\276i\252p=l\342\371\274\306P\022>8\202R=\310\264o>7I\262=\320z4\275\23667>6\255)>\355t\236=\035\326-\275\365\213\375<\326Ip=Y\027B=\217\277\215\275\214\375\225=\032[\013=@\030`\275g\234\271\275G\371x=\272\3457\275jz\225\275\372\3261>d\360\270:/Fi=<\320\374=wcZ\275\221\032\017\276\340 \002>\300\245\236;\264\177\250\275^\221\354\273\327\200\330\274\027\t\347\274\326n\374<(\002\366\272\264\233\033\275\252\313\225;\321\233A\276\273Q{=w\276f\275\254i(>\374\000\022\275\274g\323<6\276\001>\356P\200\274\326\246\024\275\300\024\"<x$\014>9\201\336\275\223\257\340=fS\206=\'\300\007\276\003]a=\233\363k=\303\003\304\275\302\225\301\274`\274\321\275\234@I>r,\323<\212M*>:d\304\275\021\224d\276\020A\372=\375%\300\275\0201[>\306\251&\274dq8\275\202\241\035<@\317r;\267r$\275)n\242=\200\204\376\275\337i\245\273\320\355 \2762\257N=wym<\272\365\034\275j\212\322<\216\211 \276\260z\360;\212\307\033\275\365\300;=\233\251\240\275u\257\020=\247\267q>m;\276\275\036\330\362=L;\265\274\244\221\353\274\373\343\t>A@R<7\226`\275\2076$\275\256\205\376<\357\216*>\217\2021\276\31511\275\035\241G\276^\233\014<1Y\307\275\\u\233\276\r\316U:\316\226\330=%\027\201<\001$o<\376\017b<\373\321\343;$R\331;\266$ :\001\215U>\036\371\256=\037\266\220=\221[\351=\252\222\331=4\351,>\034u\226=D\253\253=&V\005\276e\365\227\275\363IT\274\237?R\275\362\217\023\276@\006a\270\251\337\235\275v\310;=\2706S>\021\277m<\220\324}\276Dc\302=\027\326\362=}\377F\275~fP\275\3550\330=2\355\"\276\247\214\266<\205kL\275\001\332D\276S2^=N\267Q>g#\206\276\231x\324\275\335s\023>N\320\250;4t\232>`\024\216<\205\023k>\264\376t=\003\221D=/w\022>7\022Y># \334=\351\001\365=\001\265A\274A\026\004=\270\244\037\275\314\014\220<\242O\025>\331&D<\250\226\010=N|\374\275.[\323\273\221\343\"=\251\242\037>.\320&>8\014\341\275J\252\352:\230\262\261=\006!\303=z\037\333\275\332\234,>\362\274\202\275\001\023H\276rQ*=\030\322\231=[\356L\275\256\001\365\275\364\245s=\357\364\310\275\016\\\024\276O\324\205<f7\365\275u4\020\275\351P\254\275]Y.\275\022\232\030\276l\253\352=\241\227]>,\207\204\275\222o\000\274\024\367\322\275a\r\363\274\247bF>\206\232\247\275\0068\352=y?\026\275\230\013\264\275\267`\n\2753a\361\275Sx\371=j\010Q\275\255\035B>|\277+>\306\334k\275\324\212\021\275\353O\r>YRg\275Jv\003\276\334\365\215<\256\336d=Q8D\276\330\205\322=%y\034\276C%M>\023\250(\276\224L\323=\326/\240\275uA\374<\205%m=>b\016>e\210\210\275\316\314\357\275+\344\203=M\246\327\275\023\351X>\207{[\275\311.\264>\341(\006>}\303G\276+\232\233=\245\001\312=\321\017&\276\341i\217\276\210\206-\276|\244l>mg\322\274\266\356\304\274\353\337\253\2750S\366\267\305\343\240=T\261P\275\031\367\004>0\252\026\276\331U\311=\354\243\305\275\312H\221>\352F\030>\3778\035\276\335\356\222\276\312\327\002>\266\354\235\274n0-\275\017\276\336\275`\033\312=\2374Z\276J\332,>HX\263\275\374\217M\274\251\200M\275\030\037w=4\307\004\276\275\312\364=h\206m\275P\301\314=j[\\=\177\324w\275\244\"\375\275\366V,>\002\236\342=DV\200\271\202\024\235<\323*\210=9\213\016<\272\351\221<\361S\177=\242\036\213\276\2223\370<\001a1>j\202V>\346\314\247\276\014\216Y\275$\350\207=\203\026\">AO\004>w\307\264\275\220\365C>\"\214\344=\337\315\205<+>\355\275~\005v=p\345\271\274\003Z\273;\365;l=\027q!\274+\320\275\275\207\2116=/\310\212<\366\322\276<u\017\217;\253\342\256<\031W\371<e<\t=mJ\220:\373q/=\312E\025=[\364U\274\315\000E\275\363\336P<\270\244p=e\237\310<\006J\247\275T\346,:\177\032h\274\010I\227\274\266\335\033\274\307\326M=\224\342\002>\213)\200<@G\352\273\332\334\234=\324v\245\275l\303\204\275\021 \263=\341a\361=\355A\200\275\224\021\242=\202\246\256\276\350\177\267\275\351)\306\275b\214Y\272\3166\342;\367\355%\276w\013\'>\332oW;\353\367\027>F7\313\275\307\314\274\275@\320\323\275\277H\321\275\213\')>Hv =$\177\340=\312\037\221<F(V\274\217\367\242\274\251\223\201\275Et\243\273L\027Y=%\307\365\274\217\024k\275\253\353\230>\252\324/=\273{\224=\206H\273\275I}\300=\003\031\250\274Vs\245\274DN\306\275Fv\030\274\214 \303<0\330\252=\025q\020= \017*>\312ZB\276\223\271\026>\312w\254=\232J\220; \237\215;d\305\347\275\315\221\237<5:\007\276\021N\241=\001u\307:\205\306.\276\035h\031\276\262\316`\274\241\3652>\265\276a>\"V\356=\264\202\315;(\264f>\207\311\036\276 \317X>Cl&\276\203{\325\274\350\272R\276f,\345=\313D\000\276\t@\024>\260\343\366=$\375:=gf\255><\340>\276\005\\&;\000\206\274;t\373\037>5\321F>v\303-\276*>\306=\211\214|<\245%0>t\330\201=\250/.=\310\363{\276\326\267K>\314\236\210=M\265\030=\306<\033\276\024f\374;@IR\275W\316.\276\303\"\255\275)Au\275qA\332=t\214\203=\241\374\265\274\367\313.\276d\005C=W\260\204\276\375\315\310\275\r\3216\276\251l:>\227\235\360\275[\262%>\266\346\351=\242\276\354=]n5\276\000.\006>\027D\206=I\245\261=\352UP>\204\006\257<\263\267\235=\270\326\021\276\321\335\370\274\246>\323\275\204\325\210\274\222\234x\274\272u\343;\310\200\230\274v%\201=\276\372\324\275\377\332h\275c\204\272\275D\002\234>\334JV=Q\035\r\276\376\tF=J\326C;\341\014\226=\034\242\000>\024W\334\273{\357,=\367\344\002>:T\201\274\205\231\207\275<\032\233<\337j\321<\027\021\237<9\"\327\275%\224\256=\274\337\351=~\305\346:n\207\267\275\034\327\234\275\315\214\363\275\275b\034\276\207p]=\212\220\323\275i\316R>J\020+=}\031K=,S\205\275\242R^\274\231\225\250=\004\253\377=\222\260F\275\254\nH\275@\313\245\275\237R4\275v\361\217\275A\326N>g/\345=\005M\201=\022\234\323={\217\357;\305\217\252=\217\233\222<\225\007]\276\027\004\272<\352R\200<\232JC=\352q\212\275\312\306Q\276>\371\316<\324?\t;[Z\034\275\312\267R\275\233\307\355\272\030v\355\275\244\235\020;K\364e>rm\343=\364\325\266\275,3\037\275\006>\324\274V\246\315\275\0012\320\275\211g\200\274\255\301\210=\322\277\271\274\006\245\321\275\031gD\276\376Q\276=\244\222\223\275V\234\331\274\372pn=\302\350\254\275\271\360|>\341\371\353<\335\013\370\273\310\343\265<\014\264\304\275\360\254-=\036_S=\321x\206<B\207>\275\334\313\366=$+\340<V\025\036=uK+\275e\374\377\275\336\001\277=\276\317\233\275t(M>\027A\273=\322\344a>\010=\001\274\313r\256=\200Y\200\274\341F\007=\315\301,=\246.\017\276\361\2076\276\213\005\256=\255\213\037\276e\306-\276\376\314*\275{h\202=_\254\022\275\336jy>\372\377\204=j\367O\275\004\262X\276\220\2438>Y\213u\275b\211\351=\321d\262\274\007 \n\2762\3366<3\323\317\275\362\203\254=JR\310=\3760 >\345{\325=\345M!=\027\241\333=\202\222\225>\023u\252=G\214\207\275@\016\340;7\221\374\275\364\025\025\275!\376\363=\037\341\324<\207\036\251<\2507\217=\004z\006>\337y\243\275\217(\022>\360\3305\274\323\376\334\274\003\356Z\275Up\034>$\376\311\275\002\316~=\226\235r\274\272\210\220\275\203\351->Q0\241<z\255\002\276\033^==\313 \257</\003\211\275w\275?\275\2160\237<\003Z-\275t\223\250=\204\037W\276\347\254\234=\271Z1\275su\316=\"\336\n<9\304\203=\017\032\307==vU\276\233\301\236\275\371\005H=3\004\037>u\\u>\021\353\206\272\341i\t>\025r\332\274\206;c>\270\257\203\273\177\303$\276\266\016\313\271e\327\263=\232\263O\276\211^3<p\325f\272\225X@\276m\237\362\275\217;\">Z.\335\273\034\2304\276,\311\t\275\204\232\316\275`\003>\271\233\314\017>=\263\300\275\365A\254>7\304A\275\223b\303=\026\2616\276x\364\023\276\225\t\005>\271\027\226=\253\246[=P\343\352\2754\253b\273\253\272F=7\241h=P\343(>z\030&>\355\267\034</\227\021>>\233\032\276\235\201\022\275\223\017\023\276\2627 >\371\207\311\275\264\177\230\275\205\370q\276\322-V=\2640r\275\3211\320\275\215C\321=\246\201v=k\221\206=\266J\251\274\004\366H\274\250\231M>\355\221\037\276\360S\\\276\307\3264=dp/>\350\257\227=\215\310v>W\250M>[\365\025\276\372\244k=Q\334g\276\0257\033>\351\257\013>RE\371=9\271\276=\037\232\335\275\302\220/\275\377\256\254\275\010\365\343\275\373\274\333<\371\233\373=\002\307\223=d\275d;Q?->\322\217\305<\031\n\'>|\200\252<\255\205\217\273\225a\222>\331h\237=\003:\225\274\246\341*=\005\245\204>)>\024>\237G\037\276?y\000\276.\226\206\275cim>7\003p\274\213rd\276i?\242\275\276\362\022=\314\225\017>\323\240\237\274\372a\241\275,\334>\276\250<,\273I\254s\275\000.->0m\t\274q-\265=\373\211\212>\263\365\213<\335\014\312\274\t:n=\347\010\330=\270\346\335\275R8\340\275\001\225\354=\257#M=\001l\022\275\371\222\262=iX\311=\315\362w=\336\017\017\276\222\376U>\346i\247<\0316\027>\220[\246\275\200J\036\274\207\216\022\276r\222\003>\366\372\017>\313\005 >\025\231\242\275\036y\272\275\177}@\276\205\331\300<\2769S\276\206\264\366\275I\240\201\276\027MI>\226\356\274\275\304\360\301=\201\\\202>\230QO>B\227\270\275$5#>\245\0309>Ib\302\276\316\013\205=\323B\342=\367\334m\275\242[\311\275b\032\267>3\022B\275\315\331\256\275x=\024\276\023\262\260=\261\345+\276Q\2222>Me\256=\204_\216\275G~\001>)\3412\275\276UO\276\324\212\371\275\222\372\256=\312\204#\273\256.1\276\253\305\006>\320!/>\n\321\235=\252q\357=%*\227\275dzV\273\344\231\220\275\264y:;\0310\021>]\274\016\275J\367\025\275]\245\352=\231\200\371=\240\362\322\273\322x}\275\242\030\215=F\220g\275\323\360k=:\331\270<\276P\000>\035\300\213\275\261\212\342=\314\037<>\353E\244\275q=\036\274o\"N=/q\005\2752\205\225=\206^\231=\322tx=\225\345$=<\201V<\242\027\305<\311>\005\275\257c9\2762\267\252\275A5f\276\214\"\264<\216\320\026\275\352R\260\275\230\217\223=\350\306\246<,\234\304=\226\320@\2760\272\226\275ET\003\275_\t\212=\251\023D\276z\256\356<,